{"pat_str": "'s|'t|'re|'ve|'m|'ll|'d| ?[\\p{L}]+| ?[\\p{N}]+| ?[^\\s\\p{L}\\p{N}]+|\\s+(?!\\S)|\\s+", "mergeable_ranks": {"00": 0, "01": 1, "02": 2, "03": 3, "04": 4, "05": 5, "06": 6, "07": 7, "08": 8, "09": 9, "0a": 10, "0b": 11, "0c": 12, "0d": 13, "0e": 14, "0f": 15, "10": 16, "11": 17, "12": 18, "13": 19, "14": 20, "15": 21, "16": 22, "17": 23, "18": 24, "19": 25, "1a": 26, "1b": 27, "1c": 28, "1d": 29, "1e": 30, "1f": 31, "20": 32, "21": 33, "22": 34, "23": 35, "24": 36, "25": 37, "26": 38, "27": 39, "28": 40, "29": 41, "2a": 42, "2b": 43, "2c": 44, "2d": 45, "2e": 46, "2f": 47, "30": 48, "31": 49, "32": 50, "33": 51, "34": 52, "35": 53, "36": 54, "37": 55, "38": 56, "39": 57, "3a": 58, "3b": 59, "3c": 60, "3d": 61, "3e": 62, "3f": 63, "40": 64, "41": 65, "42": 66, "43": 67, "44": 68, "45": 69, "46": 70, "47": 71, "48": 72, "49": 73, "4a": 74, "4b": 75, "4c": 76, "4d": 77, "4e": 78, "4f": 79, "50": 80, "51": 81, "52": 82, "53": 83, "54": 84, "55": 85, "56": 86, "57": 87, "58": 88, "59": 89, "5a": 90, "5b": 91, "5c": 92, "5d": 93, "5e": 94, "5f": 95, "60": 96, "61": 97, "62": 98, "63": 99, "64": 100, "65": 101, "66": 102, "67": 103, "68": 104, "69": 105, "6a": 106, "6b": 107, "6c": 108, "6d": 109, "6e": 110, "6f": 111, "70": 112, "71": 113, "72": 114, "73": 115, "74": 116, "75": 117, "76": 118, "77": 119, "78": 120, "79": 121, "7a": 122, "7b": 123, "7c": 124, "7d": 125, "7e": 126, "7f": 127, "80": 128, "81": 129, "82": 130, "83": 131, "84": 132, "85": 133, "86": 134, "87": 135, "88": 136, "89": 137, "8a": 138, "8b": 139, "8c": 140, "8d": 141, "8e": 142, "8f": 143, "90": 144, "91": 145, "92": 146, "93": 147, "94": 148, "95": 149, "96": 150, "97": 151, "98": 152, "99": 153, "9a": 154, "9b": 155, "9c": 156, "9d": 157, "9e": 158, "9f": 159, "a0": 160, "a1": 161, "a2": 162, "a3": 163, "a4": 164, "a5": 165, "a6": 166, "a7": 167, "a8": 168, "a9": 169, "aa": 170, "ab": 171, "ac": 172, "ad": 173, "ae": 174, "af": 175, "b0": 176, "b1": 177, "b2": 178, "b3": 179, "b4": 180, "b5": 181, "b6": 182, "b7": 183, "b8": 184, "b9": 185, "ba": 186, "bb": 187, "bc": 188, "bd": 189, "be": 190, "bf": 191, "c0": 192, "c1": 193, "c2": 194, "c3": 195, "c4": 196, "c5": 197, "c6": 198, "c7": 199, "c8": 200, "c9": 201, "ca": 202, "cb": 203, "cc": 204, "cd": 205, "ce": 206, "cf": 207, "d0": 208, "d1": 209, "d2": 210, "d3": 211, "d4": 212, "d5": 213, "d6": 214, "d7": 215, "d8": 216, "d9": 217, "da": 218, "db": 219, "dc": 220, "dd": 221, "de": 222, "df": 223, "e0": 224, "e1": 225, "e2": 226, "e3": 227, "e4": 228, "e5": 229, "e6": 230, "e7": 231, "e8": 232, "e9": 233, "ea": 234, "eb": 235, "ec": 236, "ed": 237, "ee": 238, "ef": 239, "f0": 240, "f1": 241, "f2": 242, "f3": 243, "f4": 244, "f5": 245, "f6": 246, "f7": 247, "f8": 248, "f9": 249, "fa": 250, "fb": 251, "fc": 252, "fd": 253, "fe": 254, "ff": 255, "2074": 256, "2061": 257, "6865": 258, "696e": 259, "7265": 260, "6f6e": 261, "20746865": 262, "6572": 263, "2073": 264, "6174": 265, "2077": 266, "206f": 267, "6e64": 268, "2063": 269, "6974": 270, "6f72": 271, "6573": 272, "656e": 273, "6973": 274, "2062": 275, "2066": 276, "696e67": 277, "2070": 278, "6f75": 279, "6564": 280, "616e": 281, "616c": 282, "20746f": 283, "206d": 284, "20696e": 285, "6172": 286, "206f66": 287, "20616e64": 288, "2064": 289, "6963": 290, "6c65": 291, "6173": 292, "2068": 293, "696f6e": 294, "6f6d": 295, "207468": 296, "6c6c": 297, "656e74": 298, "206c": 299, "7374": 300, "7665": 301, "207265": 302, "726f": 303, "206e": 304, "2065": 305, "2049": 306, "2067": 307, "6c79": 308, "e280": 309, "2054": 310, "6374": 311, "6574": 312, "2053": 313, "7574": 314, "6179": 315, "206265": 316, "206973": 317, "6964": 318, "2079": 319, "6f74": 320, "2041": 321, "206f6e": 322, "616d": 323, "20666f72": 324, "2043": 325, "6f77": 326, "7572": 327, "6365": 328, "6164": 329, "696d": 330, "6967": 331, "7365": 332, "6368": 333, "766572": 334, "2075": 335, "2074686174": 336, "20796f75": 337, "6174696f6e": 338, "207374": 339, "6f6c": 340, "697468": 341, "204d": 342, "696c": 343, "6972": 344, "206974": 345, "2077697468": 346, "2042": 347, "2050": 348, "207765": 349, "7261": 350, "206865": 351, "2032": 352, "746572": 353, "207768": 354, "20616e": 355, "6b65": 356, "696c6c": 357, "206173": 358, "2057": 359, "2031": 360, "e28099": 361, "2070726f": 362, "6f6f": 363, "206861": 364, "6966": 365, "206174": 366, "657273": 367, "2028": 368, "2044": 369, "20636f6d": 370, "20617265": 371, "6765": 372, "2052": 373, "2046": 374, "206f72": 375, "6c64": 376, "20636f6e": 377, "617465": 378, "686572": 379, "207365": 380, "6f7265": 381, "636b": 382, "7269": 383, "2048": 384, "20546865": 385, "756c": 386, "7468": 387, "6d656e74": 388, "657373": 389, "7070": 390, "206465": 391, "696768": 392, "20776173": 393, "657374": 394, "756e": 395, "726f6d": 396, "6f70": 397, "6577": 398, "6162": 399, "2047": 400, "7573": 401, "697374": 402, "204e": 403, "656d": 404, "2045": 405, "697665": 406, "204c": 407, "2076": 408, "206578": 409, "697479": 410, "2068617665": 411, "206279": 412, "726573": 413, "2072": 414, "7065": 415, "7175": 416, "6e74": 417, "207375": 418, "2074686973": 419, "61696e": 420, "617274": 421, "757374": 422, "203230": 423, "207368": 424, "2066726f6d": 425, "616e74": 426, "656c": 427, "2773": 428, "616e64": 429, "6f7274": 430, "756d": 431, "6f73": 432, "204f": 433, "69676874": 434, "206e6f74": 435, "696573": 436, "20616c": 437, "616c6c": 438, "20706c": 439, "6f7374": 440, "6f7572": 441, "6f7574": 442, "2063616e": 443, "656172": 444, "206c65": 445, "617264": 446, "616c6c79": 447, "6f756c64": 448, "206368": 449, "20e280": 450, "617374": 451, "726564": 452, "2077696c6c": 453, "204a": 454, "202d": 455, "6768": 456, "20646f": 457, "6976": 458, "7465": 459, "206162": 460, "20796f7572": 461, "6f6d65": 462, "7564": 463, "546865": 464, "6f64": 465, "696465": 466, "20636f6d70": 467, "726f75": 468, "20616c6c": 469, "6170": 470, "20686173": 471, "206a": 472, "696e65": 473, "6f63": 474, "6167": 475, "20627574": 476, "20776f72": 477, "616b": 478, "6965": 479, "20776865": 480, "2e2e": 481, "207573": 482, "696365": 483, "757265": 484, "617265": 485, "616d65": 486, "61636b": 487, "2055": 488, "206d65": 489, "6374696f6e": 490, "6970": 491, "206e65": 492, "6665": 493, "206b": 494, "207361": 495, "696368": 496, "616765": 497, "206f7574": 498, "20636c": 499, "206164": 500, "616e73": 501, "74686572": 502, "6f6f6b": 503, "3030": 504, "207465": 505, "207570": 506, "20323031": 507, "6163": 508, "7279": 509, "206d6f7265": 510, "706572": 511, "7074": 512, "6f6e65": 513, "706c": 514, "69616c": 515, "696e64": 516, "696d65": 517, "61746564": 518, "6f67": 519, "616b65": 520, "e2809d": 521, "666f72": 522, "2074686579": 523, "636c": 524, "207468656972": 525, "206d79": 526, "2022": 527, "6f6e67": 528, "6f7573": 529, "20736f": 530, "206f6e65": 531, "6f6f64": 532, "76657279": 533, "626572": 534, "6363": 535, "697a": 536, "696b65": 537, "7565": 538, "20656e": 539, "20496e": 540, "2077686f": 541, "206f7572": 542, "204b": 543, "205468": 544, "6475": 545, "61626c65": 546, "20636f6e74": 547, "697465": 548, "20676f": 549, "616365": 550, "6570": 551, "20646973": 552, "20686973": 553, "736f": 554, "2061626f7574": 555, "617373": 556, "616e6365": 557, "207768696368": 558, "76656e": 559, "696f6e73": 560, "7562": 561, "20706572": 562, "746f": 563, "2059": 564, "616374": 565, "206f6666": 566, "20696d": 567, "69636b": 568, "205374": 569, "20e2809c": 570, "2033": 571, "6666": 572, "206d616e": 573, "7275": 574, "6174696f6e73": 575, "20726573": 576, "6961": 577, "726565": 578, "204368": 579, "69676e": 580, "206f74686572": 581, "72656174": 582, "666f726d": 583, "616368": 584, "206c696b65": 585, "697265": 586, "206e6577": 587, "6e65": 588, "206265656e": 589, "6962": 590, "6f7264": 591, "2079656172": 592, "61696c": 593, "61726b": 594, "756c74": 595, "2073616964": 596, "2056": 597, "20726563": 598, "20616c736f": 599, "2074696d65": 600, "617365": 601, "6f776e": 602, "696c65": 603, "617279": 604, "2077657265": 605, "6175": 606, "6f756e74": 607, "20776f726b": 608, "6f6e64": 609, "6f7665": 610, "20616e79": 611, "20756e": 612, "207363": 613, "20776f756c64": 614, "617973": 615, "20617070": 616, "2070617274": 617, "6974696f6e": 618, "6176": 619, "656e73": 620, "20686164": 621, "207175": 622, "657276": 623, "6963616c": 624, "6f7365": 625, "20676574": 626, "696e6b": 627, "207468616e": 628, "20736f6d65": 629, "72657373": 630, "2774": 631, "206167": 632, "207468656d": 633, "6f756768": 634, "76656c": 635, "207370": 636, "204974": 637, "206f766572": 638, "2077686174": 639, "207468657265": 640, "207768656e": 641, "6f7273": 642, "207472": 643, "6f6c64": 644, "206966": 645, "206a757374": 646, "206172": 647, "696e74": 648, "207065": 649, "69727374": 650, "6f62": 651, "20686572": 652, "6f756e64": 653, "20697473": 654, "697474": 655, "776e": 656, "205765": 657, "656e6365": 658, "76657273": 659, "207477": 660, "206665": 661, "206d6179": 662, "20707265": 663, "20737065": 664, "616d70": 665, "696e6773": 666, "206b6e": 667, "656e7473": 668, "20706c6179": 669, "20696e746f": 670, "20726f": 671, "66746572": 672, "6c6963": 673, "6f6e73": 674, "6d6572": 675, "20626563": 676, "616465": 677, "697368": 678, "6f7279": 679, "6f76": 680, "206669727374": 681, "636c7564": 682, "20616363": 683, "20636f": 684, "2034": 685, "69616e": 686, "20616d": 687, "756c6c": 688, "2035": 689, "6f79": 690, "20696e64": 691, "6f706c65": 692, "726f756768": 693, "72656e": 694, "616c73": 695, "20626c": 696, "61746573": 697, "6674": 698, "6e646572": 699, "20736865": 700, "646179": 701, "617461": 702, "203139": 703, "206d6f7374": 704, "20696d70": 705, "20646573": 706, "6e696e67": 707, "2074776f": 708, "696f7573": 709, "6c6573": 710, "207379": 711, "206f6e6c79": 712, "206e6f": 713, "6d656e7473": 714, "686564": 715, "616e67": 716, "20636f6d6d": 717, "20696e636c7564": 718, "636573": 719, "65726d": 720, "20706f": 721, "20616464": 722, "7765": 723, "206e656564": 724, "20666c": 725, "2070656f706c65": 726, "20686f77": 727, "204865": 728, "6f6e74": 729, "696577": 730, "68696e67": 731, "2064617461": 732, "7c7c": 733, "2036": 734, "72656e74": 735, "207072": 736, "207261": 737, "206b65": 738, "726962": 739, "2054686973": 740, "61746572": 741, "61757365": 742, "656b": 743, "206261636b": 744, "20757365": 745, "20636f6e73": 746, "696c79": 747, "20626574": 748, "75726e": 749, "726f756e64": 750, "206c6f6f6b": 751, "6772": 752, "696c64": 753, "205265": 754, "20323030": 755, "206d616b65": 756, "2070726f76": 757, "76656e74": 758, "656374": 759, "7068": 760, "75616c": 761, "2032303132": 762, "697365": 763, "20747261": 764, "207468726f756768": 765, "636f6d": 766, "6177": 767, "207468657365": 768, "2070726f6475": 769, "206576657279": 770, "697373": 771, "676574": 772, "2066696e": 773, "6974696573": 774, "2077656c6c": 775, "656e64": 776, "292e": 777, "5468": 778, "616e6b": 779, "6174696e67": 780, "20676f6f64": 781, "696374": 782, "20616374": 783, "2077616e74": 784, "206166746572": 785, "6c656374": 786, "7465726e": 787, "6174696f6e616c": 788, "206b6e6f77": 789, "2076657279": 790, "207468656e": 791, "69666963": 792, "726f77": 793, "7373": 794, "206275": 795, "207068": 796, "207465616d": 797, "637265": 798, "69636573": 799, "20656d": 800, "63657373": 801, "666f7265": 802, "6f6c6c": 803, "666f726d6174696f6e": 804, "20636f6c": 805, "636564": 806, "205768": 807, "2024": 808, "20726570": 809, "206e6f77": 810, "292c": 811, "616c7468": 812, "20636f756c64": 813, "2068656c": 814, "6f6f6c": 815, "207768657265": 816, "7374656d": 817, "20736565": 818, "61736f6e": 819, "206576656e": 820, "74696e67": 821, "20756e646572": 822, "20416e": 823, "2073657276": 824, "73656c": 825, "7473": 826, "756368": 827, "6964656e74": 828, "6a656374": 829, "616e6765": 830, "207468696e6b": 831, "2072656c": 832, "2068656c70": 833, "7479": 834, "20646966": 835, "20556e": 836, "2073757070": 837, "656c6c": 838, "6f636b": 839, "6f776572": 840, "696c697479": 841, "6f726b": 842, "2050726f": 843, "726974": 844, "75726573": 845, "20646964": 846, "20656e74": 847, "7973": 848, "696564": 849, "206772656174": 850, "203130": 851, "7461696e": 852, "206f776e": 853, "66756c": 854, "20696e76": 855, "20416e64": 856, "6978": 857, "68656e": 858, "61726368": 859, "61736564": 860, "20726567": 861, "207965617273": 862, "206d616465": 863, "20e28093": 864, "6f7468": 865, "66656374": 866, "2068696d": 867, "207374617274": 868, "20617474": 869, "6f7373": 870, "20436f6d": 871, "696e657373": 872, "2073797374656d": 873, "207269676874": 874, "616972": 875, "20776179": 876, "204e6577": 877, "2067616d65": 878, "6572736f6e": 879, "496e": 880, "77617264": 881, "20696e666f726d6174696f6e": 882, "2026": 883, "756c6172": 884, "206d616e79": 885, "20616761696e": 886, "205365": 887, "20736563": 888, "2073756368": 889, "20646179": 890, "206c617374": 891, "206775": 892, "76656c6f70": 893, "20736574": 894, "206265696e67": 895, "204164": 896, "70656374": 897, "20646f6e": 898, "696373": 899, "6174697665": 900, "616e79": 901, "2072656d": 902, "696665": 903, "686573": 904, "6e6572": 905, "756573": 906, "206c6f6e67": 907, "20426c": 908, "7572696e67": 909, "20596f75": 910, "2073686f756c64": 911, "776179": 912, "207265616c6c79": 913, "626c65": 914, "616b696e67": 915, "2062656361757365": 916, "7072": 917, "206d696e": 918, "7874": 919, "6f6d6574": 920, "7368": 921, "20617373": 922, "6369616c": 923, "2c22": 924, "207472616e73": 925, "2037": 926, "3230": 927, "67616e": 928, "20636172": 929, "206c6f63": 930, "20737562": 931, "20696e7374": 932, "2073747564": 933, "7570": 934, "2065616368": 935, "756e64": 936, "2068657265": 937, "69626c65": 938, "2ee2809d": 939, "616c6b": 940, "2075736564": 941, "20736572": 942, "75616c6c79": 943, "20646574": 944, "20736d": 945, "617468": 946, "2038": 947, "20746f6f": 948, "7573696e657373": 949, "2072657175": 950, "6976657273": 951, "206d756368": 952, "204465": 953, "2074686f7365": 954, "20436c": 955, "2068616e64": 956, "6f6c6f67": 957, "20427574": 958, "207765656b": 959, "20646563": 960, "75626c6963": 961, "2068696768": 962, "204966": 963, "697473": 964, "63686f6f6c": 965, "77617265": 966, "61746368": 967, "2066696e64": 968, "2070726573": 969, "69746564": 970, "20466f72": 971, "20656172": 972, "69656e74": 973, "2077696e": 974, "207768696c65": 975, "20636f6d707574": 976, "20646f776e": 977, "20646f6573": 978, "2e22": 979, "206d656d": 980, "20726574": 981, "6f74686572": 982, "20636865": 983, "6772616d": 984, "205465": 985, "616c65": 986, "205368": 987, "2073686f77": 988, "70656e": 989, "206d6f64": 990, "20696e7465": 991, "206e756d": 992, "20656e64": 993, "726976": 994, "20706f696e74": 995, "2072656164": 996, "2062656c": 997, "206163": 998, "20536f": 999, "6379": 1000, "206865616c7468": 1001, "636572": 1002, "2074616b65": 1003, "206578706572": 1004, "206469666665": 1005, "6f6c6c6f77": 1006, "6d616e": 1007, "617665": 1008, "656e6572": 1009, "20706572736f6e": 1010, "706c6179": 1011, "696e6365": 1012, "20646576656c6f70": 1013, "206c656164": 1014, "69656e6365": 1015, "20706c616365": 1016, "20676f696e67": 1017, "2062657374": 1018, "6178": 1019, "20637265": 1020, "206265666f7265": 1021, "20737572": 1022, "20637572": 1023, "6964656f": 1024, "63686e": 1025, "617368": 1026, "69656c64": 1027, "72656164": 1028, "20736c": 1029, "206f62": 1030, "20696e746572": 1031, "20636f756e74": 1032, "6e67": 1033, "2074686f756768": 1034, "726f7570": 1035, "2072756e": 1036, "6f6f74": 1037, "72657374": 1038, "617a": 1039, "2063616c6c": 1040, "2063686172": 1041, "5765": 1042, "6c616e64": 1043, "6e657373": 1044, "696e6573": 1045, "2073616d65": 1046, "20696e73": 1047, "207374696c6c": 1048, "6974746c65": 1049, "6168": 1050, "72697374": 1051, "7574696f6e": 1052, "20416c": 1053, "72616374": 1054, "20746f70": 1055, "6972656374": 1056, "6c6564": 1057, "2061726f756e64": 1058, "20636170": 1059, "20686f6d65": 1060, "2070726f6772616d": 1061, "202a": 1062, "207369676e": 1063, "207468726565": 1064, "20617274": 1065, "7765656e": 1066, "6f757365": 1067, "2070726f63657373": 1068, "2073696d": 1069, "20666f6c6c6f77": 1070, "2032303133": 1071, "206564": 1072, "2063617265": 1073, "206272": 1074, "616d6573": 1075, "20657870": 1076, "20776f726c64": 1077, "20736f6d6574": 1078, "696572": 1079, "206d6564": 1080, "20636f6d7075746572": 1081, "676c65": 1082, "76696577": 1083, "206c697374": 1084, "697a65": 1085, "204265": 1086, "657473": 1087, "7567": 1088, "6572696e67": 1089, "6c696e65": 1090, "206176": 1091, "63656e74": 1092, "696574": 1093, "2073746f7265": 1094, "756e697479": 1095, "20636f6d706c65": 1096, "6d65726963": 1097, "2066616d": 1098, "20706f7374": 1099, "207265616c": 1100, "63657074": 1101, "20617574": 1102, "616d706c65": 1103, "54686973": 1104, "6f75726e": 1105, "207365636f6e64": 1106, "20706f6c": 1107, "206c6974746c65": 1108, "2070726f64756374": 1109, "696e73": 1110, "696c6c696f6e": 1111, "206672": 1112, "6666656374": 1113, "206d6f6e": 1114, "757465": 1115, "206265747765656e": 1116, "2070726f766964": 1117, "696f": 1118, "6d73": 1119, "6f756e": 1120, "207374617465": 1121, "20766973": 1122, "2066756c6c": 1123, "20707574": 1124, "3130": 1125, "20646566": 1126, "65766572": 1127, "6f68": 1128, "7265656e": 1129, "203135": 1130, "61676573": 1131, "6174757265": 1132, "20626f7468": 1133, "2068617070": 1134, "2039": 1135, "20636c65": 1136, "20627573696e657373": 1137, "6173746572": 1138, "72616c": 1139, "6174686572": 1140, "69726564": 1141, "656e65": 1142, "656e7365": 1143, "e2809c": 1144, "696d6573": 1145, "20636f7572": 1146, "204672": 1147, "7573746f6d": 1148, "636f6e": 1149, "69616c6c79": 1150, "20736179": 1151, "697264": 1152, "2073746570": 1153, "6374696f6e73": 1154, "73656c66": 1155, "2063656e74": 1156, "2ce2809d": 1157, "6279": 1158, "7269656e64": 1159, "20766964656f": 1160, "686970": 1161, "696e6564": 1162, "206d61726b": 1163, "657468": 1164, "207465726d": 1165, "206c6f74": 1166, "6578": 1167, "20626f6f6b": 1168, "616b6573": 1169, "706c65": 1170, "204172": 1171, "207573696e67": 1172, "2054686579": 1173, "6976657273697479": 1174, "6273": 1175, "696f72": 1176, "20676f74": 1177, "203131": 1178, "6f6f676c65": 1179, "20737570706f7274": 1180, "20646966666572656e74": 1181, "4974": 1182, "20626967": 1183, "207265636f7264": 1184, "206e756d626572": 1185, "6265": 1186, "203132": 1187, "697a6564": 1188, "2051": 1189, "746865": 1190, "204c65": 1191, "20416d65726963": 1192, "656d73": 1193, "746f6e": 1194, "2066726565": 1195, "20636f6d65": 1196, "20696e636c7564696e67": 1197, "4552": 1198, "6f78": 1199, "617273": 1200, "2064697374": 1201, "206c696665": 1202, "74657273": 1203, "766573": 1204, "6973686564": 1205, "2066756e": 1206, "6963616c6c79": 1207, "20736561736f6e": 1208, "6976696e67": 1209, "20706572666f726d": 1210, "2066696c": 1211, "20706c616e": 1212, "20746563686e": 1213, "2072657370": 1214, "20736f6d657468696e67": 1215, "276d": 1216, "696e616c": 1217, "2064657369676e": 1218, "206b6579": 1219, "746564": 1220, "20476f6f676c65": 1221, "277265": 1222, "6f6164": 1223, "20666f7572": 1224, "20647572696e67": 1225, "6c65617365": 1226, "69766573": 1227, "20706172746963": 1228, "726963": 1229, "204173": 1230, "2070726f66": 1231, "2064697363": 1232, "2030": 1233, "2072657374": 1234, "726f7373": 1235, "20656173": 1236, "20486f77": 1237, "20637573746f6d": 1238, "206d69676874": 1239, "72656e6365": 1240, "5768": 1241, "206c6f7665": 1242, "206576": 1243, "6973696f6e": 1244, "20666f6f64": 1245, "2067656e6572": 1246, "76696e67": 1247, "2068617264": 1248, "20626568": 1249, "617473": 1250, "206772": 1251, "20737472": 1252, "616e7473": 1253, "616a": 1254, "20666577": 1255, "63746564": 1256, "206665656c": 1257, "6c657373": 1258, "206f7070": 1259, "20666f726d": 1260, "61696d": 1261, "77617973": 1262, "207363686f6f6c": 1263, "20696e637265": 1264, "20616e6f74686572": 1265, "20636c617373": 1266, "20636f6e74696e": 1267, "20617661696c": 1268, "3330": 1269, "7073": 1270, "766564": 1271, "20706f776572": 1272, "20536865": 1273, "7468696e67": 1274, "7474": 1275, "20627261": 1276, "616c697479": 1277, "207468696e6773": 1278, "20496e64": 1279, "20436f6e": 1280, "205468657265": 1281, "697175": 1282, "20706f7373": 1283, "646572": 1284, "206d6f76": 1285, "4553": 1286, "20707572": 1287, "206d757374": 1288, "6f727473": 1289, "20626574746572": 1290, "2063757272656e74": 1291, "20747279": 1292, "206f706572": 1293, "2072656365": 1294, "7665726e": 1295, "20526573": 1296, "6f6465": 1297, "20616476": 1298, "2069": 1299, "6375": 1300, "206f70656e": 1301, "20636f72": 1302, "6f6c6f6779": 1303, "20666f756e64": 1304, "2068656164": 1305, "206e65766572": 1306, "7074696f6e": 1307, "4354": 1308, "62657273": 1309, "20726573756c74": 1310, "20696e746572657374": 1311, "203a": 1312, "206372": 1313, "2072656e74": 1314, "657373696f6e": 1315, "2073706563": 1316, "20736d616c6c": 1317, "75636b": 1318, "6174656c79": 1319, "206c6172": 1320, "206c696e65": 1321, "6f6479": 1322, "20617661696c61626c65": 1323, "626f6f6b": 1324, "6767": 1325, "204d616e": 1326, "206e657874": 1327, "6f617264": 1328, "6974616c": 1329, "20646972656374": 1330, "207374616e64": 1331, "203138": 1332, "706f73": 1333, "2061726561": 1334, "696b": 1335, "20626173": 1336, "20766172": 1337, "7563": 1338, "206c657373": 1339, "20776974686f7574": 1340, "204e6f": 1341, "20667269656e64": 1342, "2070617373": 1343, "207075626c6963": 1344, "6c6579": 1345, "20676c": 1346, "20617070726f": 1347, "494e": 1348, "61726564": 1349, "65726564": 1350, "676572": 1351, "75726f": 1352, "20696e74": 1353, "2067726f7570": 1354, "2070726f7465": 1355, "72617068": 1356, "66666963": 1357, "20616761696e7374": 1358, "6974686572": 1359, "20706174": 1360, "20646973706c6179": 1361, "20696e76657374": 1362, "69656e": 1363, "20636f6e74726f": 1364, "666572": 1365, "6c69": 1366, "7777": 1367, "617474": 1368, "207175657374": 1369, "207479": 1370, "20736974": 1371, "20416c6c": 1372, "203136": 1373, "20657874": 1374, "204f6e": 1375, "2e2c": 1376, "6f6b": 1377, "2070726f626c65": 1378, "3530": 1379, "696e61": 1380, "65727461696e": 1381, "2073696e6365": 1382, "20706179": 1383, "206d6174": 1384, "20696e63": 1385, "20656c": 1386, "2054686174": 1387, "207475726e": 1388, "206f6c64": 1389, "2066616374": 1390, "205363": 1391, "20436872697374": 1392, "207665": 1393, "75726564": 1394, "6f757468": 1395, "206e69676874": 1396, "667477617265": 1397, "20313939": 1398, "20636f7374": 1399, "61726d": 1400, "6574696e67": 1401, "2043616e": 1402, "20616c6c6f77": 1403, "6f637573": 1404, "20696d706f7274": 1405, "206275696c64": 1406, "2066616d696c79": 1407, "696e696e67": 1408, "69736d": 1409, "7374616e64": 1410, "2076696577": 1411, "6c696e67": 1412, "696e6174696f6e": 1413, "20627265": 1414, "2068756d": 1415, "2061736b": 1416, "20646576": 1417, "206c6576656c": 1418, "20636f6d70616e79": 1419, "4f52": 1420, "6562": 1421, "6f66": 1422, "69726f6e": 1423, "20636f6e66": 1424, "72696573": 1425, "61626c79": 1426, "70656e64": 1427, "206c6567": 1428, "2070726f706572": 1429, "206f7267616e": 1430, "6f6e6579": 1431, "706c6f79": 1432, "207061696e": 1433, "6172696e67": 1434, "204973": 1435, "7070696e67": 1436, "20616c77617973": 1437, "696174696f6e": 1438, "776f726b": 1439, "697363": 1440, "205370": 1441, "69737473": 1442, "206c6574": 1443, "617073": 1444, "616365626f6f6b": 1445, "68657265": 1446, "2067697665": 1447, "20506c": 1448, "656d626572": 1449, "2076616c": 1450, "2073757265": 1451, "277665": 1452, "74656e": 1453, "20736f63": 1454, "20656666656374": 1455, "e280a6": 1456, "7572616c": 1457, "6966696564": 1458, "206e657773": 1459, "67696e": 1460, "726f6e": 1461, "207772": 1462, "6f726e": 1463, "2062726f": 1464, "6c6574": 1465, "20436f6d6d": 1466, "2072657475726e": 1467, "414e": 1468, "4966": 1469, "6779": 1470, "61746f72": 1471, "2064617973": 1472, "6c6567": 1473, "2070726f6a656374": 1474, "206164646974696f6e": 1475, "20706f73": 1476, "6f7465": 1477, "616d656e74": 1478, "206d6f6e7468": 1479, "706f72": 1480, "206669656c64": 1481, "20746f646179": 1482, "206d61696e": 1483, "20686f70": 1484, "6162696c697479": 1485, "2061626c65": 1486, "20636c61696d": 1487, "2070686f74": 1488, "20556e6976657273697479": 1489, "63696e67": 1490, "20736b": 1491, "6974697665": 1492, "206d7573": 1493, "61726e": 1494, "756e65": 1495, "20e28094": 1496, "4f4e": 1497, "686f72": 1498, "20666163": 1499, "20657175": 1500, "20697373": 1501, "204d6179": 1502, "726170": 1503, "206578616d706c65": 1504, "206b656570": 1505, "206576656e74": 1506, "20726563656e74": 1507, "2057686174": 1508, "20736f6c": 1509, "6f726d": 1510, "207468696e67": 1511, "207365727669636573": 1512, "207a": 1513, "2061776179": 1514, "20647269": 1515, "6f7474": 1516, "20616e6e": 1517, "656c73": 1518, "6363657373": 1519, "20657870657269656e6365": 1520, "6563": 1521, "206d6f7665": 1522, "20647261": 1523, "69646572": 1524, "74656e64": 1525, "656164": 1526, "203330": 1527, "206964656e74": 1528, "20636972": 1529, "69736564": 1530, "20756e74": 1531, "20526570": 1532, "323031": 1533, "617065": 1534, "726174696f6e": 1535, "616e65": 1536, "616e6e": 1537, "206163746976": 1538, "616a6f72": 1539, "20696465": 1540, "6c73": 1541, "20746f676574": 1542, "2046616365626f6f6b": 1543, "20746f676574686572": 1544, "2070617374": 1545, "206d696c6c696f6e": 1546, "20696e64757374": 1547, "6d6564": 1548, "6973696e67": 1549, "616c66": 1550, "20686f7572": 1551, "203134": 1552, "6561726368": 1553, "20656e6f756768": 1554, "6f7264696e67": 1555, "2070726573656e74": 1556, "2027": 1557, "6c656374696f6e": 1558, "63726962": 1559, "6d626572": 1560, "2073696e67": 1561, "20776f6d": 1562, "2062616c6c": 1563, "203235": 1564, "204f72": 1565, "206d65616e73": 1566, "206170706c6963": 1567, "2073657276696365": 1568, "7665726e6d656e74": 1569, "70617274": 1570, "2074616c6b": 1571, "20706f70": 1572, "697373696f6e": 1573, "69657479": 1574, "20657374": 1575, "4152": 1576, "636865": 1577, "7669726f6e": 1578, "206361": 1579, "656e6e": 1580, "6f6d6d": 1581, "206368616e67": 1582, "202d2d": 1583, "69766964": 1584, "20696d706f7274616e74": 1585, "69746f72": 1586, "2072656475": 1587, "2067726f77": 1588, "20646f696e67": 1589, "206a6f62": 1590, "2073616c": 1591, "206c69676874": 1592, "2032303131": 1593, "61766f72": 1594, "4f53": 1595, "20696e66": 1596, "206e616d65": 1597, "20466c": 1598, "206578706c": 1599, "2062656c6965": 1600, "636f6e6f6d": 1601, "20626974": 1602, "205553": 1603, "2070726f76696465": 1604, "2074656d": 1605, "206c656674": 1606, "202e2e": 1607, "676564": 1608, "2077656e74": 1609, "2072657365": 1610, "204d6172": 1611, "204272": 1612, "20456e67": 1613, "6f686e": 1614, "6e6f74": 1615, "7265616d": 1616, "207761746572": 1617, "6f72696573": 1618, "206d656e": 1619, "69636c65": 1620, "2067616d6573": 1621, "204174": 1622, "696679": 1623, "20636f6e7374": 1624, "757373": 1625, "20776f726b696e67": 1626, "206c6f6f6b696e67": 1627, "2066696e616c": 1628, "206c6f63616c": 1629, "656e74696f6e": 1630, "206c697665": 1631, "75746573": 1632, "6f7473": 1633, "20656e67": 1634, "64756374": 1635, "20686f757365": 1636, "2077697468696e": 1637, "72696564": 1638, "70706564": 1639, "204578": 1640, "205a": 1641, "2121": 1642, "4d6179": 1643, "61736573": 1644, "2043656e74": 1645, "205068": 1646, "20616e696d": 1647, "61696e73": 1648, "61756768": 1649, "6974696e67": 1650, "20706172": 1651, "207072657373": 1652, "206c616e64": 1653, "20726566": 1654, "20416d": 1655, "2070657263656e74": 1656, "206f66666963": 1657, "69717565": 1658, "4173": 1659, "203234": 1660, "206c65617374": 1661, "206163636f756e74": 1662, "69756d": 1663, "6a6f79": 1664, "6b73": 1665, "76696f7573": 1666, "656e67": 1667, "20546f": 1668, "205768656e": 1669, "756e6963": 1670, "756d70": 1671, "20646f65736e": 1672, "20636f75727365": 1673, "20756e74696c": 1674, "69616e73": 1675, "6f696e74": 1676, "2074657374": 1677, "206c6177": 1678, "656e73697665": 1679, "2066656174": 1680, "207265706f7274": 1681, "206469646e": 1682, "20636f756e747279": 1683, "2063686172616374": 1684, "2070726f6475637473": 1685, "796c65": 1686, "757368": 1687, "207370656369616c": 1688, "20726f6f6d": 1689, "20636f6d6d756e697479": 1690, "7669726f6e6d656e74": 1691, "2073617973": 1692, "206f7074": 1693, "726f776e": 1694, "20686176696e67": 1695, "20696e646963": 1696, "20696e636c756465": 1697, "7265616479": 1698, "62616c6c": 1699, "6d65": 1700, "796e": 1701, "206d616b696e67": 1702, "616d6572": 1703, "20636f6e6e65": 1704, "206261736564": 1705, "20636c6f7365": 1706, "75626c": 1707, "2077696e64": 1708, "2070726f6d": 1709, "206c696d": 1710, "20656974686572": 1711, "2073747275": 1712, "204d6564": 1713, "206368616e6765": 1714, "697073": 1715, "666572656e6365": 1716, "6f75726e616d656e74": 1717, "617574": 1718, "207472656174": 1719, "20746178": 1720, "20776f6e": 1721, "206d616a6f72": 1722, "6574776f726b": 1723, "20436f6c": 1724, "204d79": 1725, "206c61726765": 1726, "6f766572": 1727, "706172": 1728, "7377": 1729, "2063616d65": 1730, "20706965": 1731, "206469": 1732, "2057697468": 1733, "20616c6f6e67": 1734, "616b656e": 1735, "20616363657373": 1736, "207370656369666963": 1737, "323030": 1738, "2073696465": 1739, "20736978": 1740, "206365727461696e": 1741, "616e636573": 1742, "2068697374": 1743, "696473": 1744, "20616c7265616479": 1745, "61726473": 1746, "204a6f686e": 1747, "6976656e": 1748, "6167656d656e74": 1749, "2074656c6c": 1750, "207175616c697479": 1751, "4544": 1752, "2064656d": 1753, "2073756363657373": 1754, "205b": 1755, "6d696e": 1756, "756666": 1757, "20616972": 1758, "6f727468": 1759, "696c6c6564": 1760, "202e": 1761, "617070": 1762, "6565": 1763, "20666f637573": 1764, "6172676574": 1765, "2041757374": 1766, "6f7773": 1767, "204f6e65": 1768, "20636f6d706574": 1769, "206b696e64": 1770, "2073747564656e7473": 1771, "2064657461696c": 1772, "20617574686f72": 1773, "206573": 1774, "4154": 1775, "466f72": 1776, "207761": 1777, "206372656174": 1778, "6974696f6e73": 1779, "656e6379": 1780, "20666f7265": 1781, "2066697665": 1782, "656473": 1783, "69646179": 1784, "2073686f7274": 1785, "20676f7665726e6d656e74": 1786, "5374": 1787, "636c65": 1788, "7574757265": 1789, "766572616c": 1790, "2073637265656e": 1791, "20706c6179657273": 1792, "20706f696e7473": 1793, "2074696d6573": 1794, "2063697479": 1795, "2063617365": 1796, "20666172": 1797, "20746f74": 1798, "206d696c": 1799, "206472": 1800, "206465616c": 1801, "204575726f": 1802, "20696e6469766964": 1803, "20636865636b": 1804, "20636f6d706c657465": 1805, "20776172": 1806, "206d6f6e6579": 1807, "20686967": 1808, "757279": 1809, "706563": 1810, "69766564": 1811, "205374617465": 1812, "20706c61796572": 1813, "20706572736f6e616c": 1814, "20646576656c6f706d656e74": 1815, "20c2": 1816, "63686564": 1817, "63686573": 1818, "74696d65": 1819, "20747265": 1820, "2073697465": 1821, "20796574": 1822, "6f6e79": 1823, "657274": 1824, "206f6363": 1825, "206d6f6d": 1826, "207468697264": 1827, "206e656172": 1828, "20436172": 1829, "766572616765": 1830, "206172656173": 1831, "756c6c79": 1832, "20696d70726f": 1833, "73696465": 1834, "2065766572": 1835, "2073746f7279": 1836, "206f72646572": 1837, "20636f6e64": 1838, "656e6566": 1839, "2f2f": 1840, "20667574757265": 1841, "20776879": 1842, "20e28098": 1843, "69616c73": 1844, "206d656d62657273": 1845, "4865": 1846, "7363": 1847, "2068616c66": 1848, "206c6f77": 1849, "203231": 1850, "616e6b73": 1851, "2061637475616c6c79": 1852, "20756e6465727374616e64": 1853, "3a2f2f": 1854, "72696374": 1855, "6572616c": 1856, "20646f6e65": 1857, "73746572": 1858, "20726576696577": 1859, "20417373": 1860, "20436f72": 1861, "696c6974696573": 1862, "203133": 1863, "20446f": 1864, "207365766572616c": 1865, "6f736564": 1866, "20736f667477617265": 1867, "2067657474696e67": 1868, "20746f6f6b": 1869, "2063616c6c6564": 1870, "20706172746963756c6172": 1871, "2058": 1872, "454e": 1873, "4954": 1874, "206d6172": 1875, "206e6f6e": 1876, "206f6e6c696e65": 1877, "203137": 1878, "6f75726365": 1879, "20656e6a6f79": 1880, "20666f6c6c6f77696e67": 1881, "2068617070656e": 1882, "707574": 1883, "2066756e64": 1884, "206d756c74": 1885, "6c656d656e74": 1886, "6f7079": 1887, "20456e": 1888, "20766f6c": 1889, "206f66666572": 1890, "6e79": 1891, "79656172": 1892, "20686f7374": 1893, "206e6174696f6e616c": 1894, "20656e7669726f6e6d656e74": 1895, "20636f6e74616374": 1896, "206272696e67": 1897, "2066726f6e74": 1898, "202f": 1899, "20636f75": 1900, "206d6f72": 1901, "206d6574": 1902, "726f70": 1903, "20436f": 1904, "72616e64": 1905, "206f726967": 1906, "205468657365": 1907, "206368696c64": 1908, "20616d6f6e67": 1909, "2073746172746564": 1910, "2074686f75676874": 1911, "69656e7473": 1912, "6c74": 1913, "205472": 1914, "20706c6163": 1915, "20617070656172": 1916, "76656e74696f6e": 1917, "20726570726573": 1918, "7761726473": 1919, "206561726c79": 1920, "20637265617465": 1921, "2068756d616e": 1922, "4947": 1923, "617572": 1924, "2077726974": 1925, "20637574": 1926, "2063656c6c": 1927, "2065636f6e6f6d": 1928, "20537465": 1929, "696464": 1930, "69646573": 1931, "696d617465": 1932, "20657870656374": 1933, "2061626f7665": 1934, "2061646472657373": 1935, "2064657465726d": 1936, "20416d65726963616e": 1937, "6e61": 1938, "204d63": 1939, "696272": 1940, "2061676f": 1941, "2064657363726962": 1942, "20636f6e73756d": 1943, "20696e766f6c": 1944, "2062656c6f77": 1945, "206f70706f7274": 1946, "747470": 1947, "2072656e74616c": 1948, "276c6c": 1949, "4953": 1950, "6f726c64": 1951, "206661766f72": 1952, "20706f7274": 1953, "206d696e64": 1954, "20313030": 1955, "68657273": 1956, "2073656c656374": 1957, "6e6579": 1958, "20706f737369626c65": 1959, "6f6f72": 1960, "206d6173746572": 1961, "6c656765": 1962, "20436f6e74": 1963, "6f6c66": 1964, "204d61726b": 1965, "20476f64": 1966, "206265636f6d65": 1967, "20747261636b": 1968, "3139": 1969, "6465": 1970, "6d70": 1971, "2063616d70": 1972, "2062656e6566": 1973, "e28094": 1974, "20436865": 1975, "20796f756e67": 1976, "20504d": 1977, "6967687473": 1978, "2072616365": 1979, "20636c65616e": 1980, "2070726f66657373696f6e": 1981, "2076657273": 1982, "3132": 1983, "3133": 1984, "696f6c": 1985, "6d6173": 1986, "657272": 1987, "20706f74": 1988, "757273": 1989, "696c74": 1990, "74686f756768": 1991, "6f7370": 1992, "697a6174696f6e": 1993, "6974746564": 1994, "20656d706c6f79": 1995, "20686f757273": 1996, "756c79": 1997, "206574": 1998, "757274686572": 1999, "203232": 2000, "20576172": 2001, "20636f6d6573": 2002, "6f726564": 2003, "2048696768": 2004, "20776f7264": 2005, "206b6e6f776e": 2006, "2764": 2007, "3134": 2008, "6166": 2009, "616666": 2010, "626974": 2011, "6c66": 2012, "6c6572": 2013, "2063616d6572": 2014, "207368617265": 2015, "2061646170": 2016, "203530": 2017, "20636c656172": 2018, "206d75736963": 2019, "20776f6d656e": 2020, "3830": 2021, "69617465": 2022, "726973": 2023, "2074616b656e": 2024, "206661696c": 2025, "20686f6c64": 2026, "205379": 2027, "696c6172": 2028, "61706572": 2029, "20696e636c75646573": 2030, "207072696365": 2031, "206d6f64656c": 2032, "20726573706f6e73": 2033, "2065617379": 2034, "20627265616b": 2035, "207c": 2036, "6579": 2037, "6e657273": 2038, "6f626572": 2039, "207069636b": 2040, "6c6c696e67": 2041, "205375": 2042, "206f6e6365": 2043, "207365656e": 2044, "756e6368": 2045, "206f7468657273": 2046, "206e65656473": 2047, "206265686176": 2048, "2e29": 2049, "414d": 2050, "4943": 2051, "5068": 2052, "6f696365": 2053, "72696e67": 2054, "206f6674656e": 2055, "2043616c": 2056, "76657274": 2057, "204a756e65": 2058, "206d65616e": 2059, "6f676e": 2060, "206164646564": 2061, "20656d61696c": 2062, "73656c766573": 2063, "7072696c": 2064, "2065647563": 2065, "207374726f6e67": 2066, "20636f6e74726f6c": 2067, "204175737472616c": 2068, "427574": 2069, "5265": 2070, "6e6564": 2071, "6e6f77": 2072, "2077616c6b": 2073, "6e64696e67": 2074, "20696e7465726e": 2075, "20494354": 2076, "6164656d": 2077, "20616e616c": 2078, "696c6c73": 2079, "204e6174696f6e616c": 2080, "20726f756e64": 2081, "2070687973": 2082, "207669736974": 2083, "2066696c6d": 2084, "2070726f626c656d": 2085, "2073696e676c65": 2086, "6d62": 2087, "6d79": 2088, "20747275": 2089, "20636f6465": 2090, "6973746572": 2091, "207072616374": 2092, "616e6369616c": 2093, "206d616b6573": 2094, "206c61746572": 2095, "6374757265": 2096, "20636f6d62": 2097, "756d62": 2098, "206c6561726e": 2099, "6172656e74": 2100, "207175657374696f6e": 2101, "207265736561726368": 2102, "20746f74616c": 2103, "596f75": 2104, "666f7274": 2105, "6c6f6164": 2106, "726574": 2107, "72656574": 2108, "2068747470": 2109, "204162": 2110, "20446f6e": 2111, "204e6f74": 2112, "2077686574686572": 2113, "6f6772617068": 2114, "20656e6572": 2115, "76656e7565": 2116, "20596f7572": 2117, "20616e797468696e67": 2118, "697474656e": 2119, "20627579": 2120, "20746f75726e616d656e74": 2121, "20626164": 2122, "6963756c74": 2123, "20536572": 2124, "20636f6d696e67": 2125, "756c6174696f6e": 2126, "20667269656e6473": 2127, "6e6573": 2128, "207061636b": 2129, "20656c656374": 2130, "205072": 2131, "207365656d": 2132, "20736561726368": 2133, "206d656173": 2134, "20636f6e74656e74": 2135, "6f75726e616c": 2136, "20746563686e6f6c6f6779": 2137, "6773": 2138, "6c697368": 2139, "2063726974": 2140, "20746f6c64": 2141, "6c6576": 2142, "206c6f67": 2143, "20676966": 2144, "205363686f6f6c": 2145, "206974656d73": 2146, "2046696e": 2147, "6f7073": 2148, "2073686f776e": 2149, "20717569636b": 2150, "206163636f7264696e67": 2151, "2063617074": 2152, "206d61726b6574": 2153, "6574686f64": 2154, "20706572666f726d616e6365": 2155, "686962": 2156, "6d6f7374": 2157, "756174696f6e": 2158, "207377": 2159, "61746963": 2160, "2066616c6c": 2161, "696379": 2162, "656e7469616c": 2163, "206c61": 2164, "20536d": 2165, "7574696f6e73": 2166, "20626567696e": 2167, "2073756d": 2168, "2073756767": 2169, "2063616e6e6f74": 2170, "61677565": 2171, "2075736572": 2172, "20616d6f756e74": 2173, "2061727469636c65": 2174, "20626568696e64": 2175, "2063617573": 2176, "2073756767657374": 2177, "6261636b": 2178, "67657374": 2179, "6f6f6e": 2180, "6f6c65": 2181, "756b": 2182, "20746f75": 2183, "6f6e6573": 2184, "6f7267": 2185, "206d61746572": 2186, "20696e6974": 2187, "206c696e6b": 2188, "63656c6c": 2189, "69726d": 2190, "203233": 2191, "20576f726c64": 2192, "207365656d73": 2193, "20486172": 2194, "61626f72": 2195, "2070657266656374": 2196, "2061747461636b": 2197, "20426c7565": 2198, "207374756479": 2199, "57686174": 2200, "20696e647573747279": 2201, "206665617475726573": 2202, "20686973746f7279": 2203, "70656369616c6c79": 2204, "3235": 2205, "6261626c79": 2206, "61747572": 2207, "69746573": 2208, "206265617574": 2209, "20417070": 2210, "61746567": 2211, "2064656665": 2212, "61676572": 2213, "666f7264": 2214, "20756e69717565": 2215, "206d696e75746573": 2216, "20736572696573": 2217, "2072657175697265": 2218, "206f626a656374": 2219, "20747279696e67": 2220, "204368726973746d6173": 2221, "20686f7065": 2222, "20696c6c": 2223, "3135": 2224, "4150": 2225, "6772657373": 2226, "7269676874": 2227, "696e63": 2228, "20737175": 2229, "20736f756e64": 2230, "20776f6e64": 2231, "6f7564": 2232, "206e696365": 2233, "204d696e": 2234, "2042656c": 2235, "61626c6573": 2236, "204772": 2237, "20596573": 2238, "20596f726b": 2239, "207370616365": 2240, "6f62696c65": 2241, "20656e74697265": 2242, "207075726368": 2243, "414c": 2244, "6169": 2245, "6464": 2246, "206d61746368": 2247, "6173696e67": 2248, "206c6974": 2249, "73746974": 2250, "205448": 2251, "2043697479": 2252, "7572697479": 2253, "20636f6e636572": 2254, "207375706572": 2255, "6f726473": 2256, "697474696e67": 2257, "2070726574": 2258, "696669636174696f6e": 2259, "207465616d73": 2260, "206163726f7373": 2261, "2070726f63657373696e67": 2262, "20636861726163746572": 2263, "204575726f7065": 2264, "4f4d": 2265, "656b65": 2266, "676f": 2267, "67696e67": 2268, "706f7274": 2269, "726577": 2270, "2063756c74": 2271, "2070726976": 2272, "65746572": 2273, "75726368": 2274, "616379": 2275, "20626c61636b": 2276, "2072657175657374": 2277, "2076616c7565": 2278, "2069646561": 2279, "2073616c6573": 2280, "20726570726573656e74": 2281, "20657463": 2282, "20707265747479": 2283, "4143": 2284, "736f6e": 2285, "756564": 2286, "20636174": 2287, "2070616765": 2288, "206c6f7373": 2289, "20506572": 2290, "20446573": 2291, "20657863": 2292, "2077686f6c65": 2293, "203430": 2294, "63756974": 2295, "206d6f726e696e67": 2296, "666963756c74": 2297, "676573": 2298, "6f6f6d": 2299, "61746f7273": 2300, "206d697373": 2301, "69646564": 2302, "20436f756e74": 2303, "205065": 2304, "2077656273": 2305, "204775": 2306, "20636f6e74726962": 2307, "20646973636c": 2308, "20706c61796564": 2309, "20626c6f67": 2310, "20686f7765766572": 2311, "2064726177": 2312, "706c79": 2313, "20746172676574": 2314, "20616765": 2315, "207761746368": 2316, "20626f6479": 2317, "20707269": 2318, "20726561736f6e": 2319, "2053756e64": 2320, "206578616d": 2321, "20726164": 2322, "204f7572": 2323, "20696e7374616c6c": 2324, "20747970": 2325, "2062656c69657665": 2326, "6d61726b": 2327, "7768": 2328, "2073656e74": 2329, "20626172": 2330, "616e636564": 2331, "617379": 2332, "2068756e": 2333, "20726564": 2334, "206e6574776f726b": 2335, "20416374": 2336, "206865617274": 2337, "2072616e6765": 2338, "61676564": 2339, "72756374696f6e": 2340, "207265717569726564": 2341, "4956": 2342, "626f617264": 2343, "6f65": 2344, "20746974": 2345, "696e6f": 2346, "65726e": 2347, "726f6475": 2348, "20676976656e": 2349, "20616e74": 2350, "20616e7377": 2351, "2057696c6c": 2352, "2057657374": 2353, "2070726f6261626c79": 2354, "70706572": 2355, "6976656c79": 2356, "2076696f6c": 2357, "2073686f74": 2358, "206368616c6c": 2359, "20776f727468": 2360, "20656e63": 2361, "206f6666657273": 2362, "207061727469636970": 2363, "20656c7365": 2364, "2070726f7065727479": 2365, "206d6f6e746873": 2366, "6961746564": 2367, "7566": 2368, "2073697a65": 2369, "69746368": 2370, "20686f6e": 2371, "207265706c": 2372, "616d6564": 2373, "2073746174": 2374, "697274": 2375, "2050726573": 2376, "2050617274": 2377, "6f7572636573": 2378, "6976616c": 2379, "61676e": 2380, "2073797374656d73": 2381, "756573646179": 2382, "494e47": 2383, "20656e65726779": 2384, "3131": 2385, "4153": 2386, "4944": 2387, "4f6e": 2388, "6d6974": 2389, "68656164": 2390, "2063616c": 2391, "206d657373": 2392, "2064617465": 2393, "617368696e67": 2394, "206e6174696f6e": 2395, "206579": 2396, "204d6f7265": 2397, "207365706172": 2398, "20726174686572": 2399, "206a6f": 2400, "2032303130": 2401, "2070726576696f7573": 2402, "2070726f64756374696f6e": 2403, "20646966666963756c74": 2404, "20436f6d70": 2405, "2073696d696c6172": 2406, "20486f7765766572": 2407, "2043656e746572": 2408, "656b656e64": 2409, "207574": 2410, "3630": 2411, "206d6574686f64": 2412, "6963726f": 2413, "757262": 2414, "204472": 2415, "206465617468": 2416, "7074656d626572": 2417, "2070726f7669646573": 2418, "20736f6369616c": 2419, "3430": 2420, "416e": 2421, "416e64": 2422, "4952": 2423, "6169676e": 2424, "2073656e73": 2425, "616e63": 2426, "20746f6f6c": 2427, "20686f74": 2428, "206c6f7374": 2429, "2067617665": 2430, "20417072696c": 2431, "204d53": 2432, "207768697465": 2433, "656c74": 2434, "756d65": 2435, "20496e7465726e": 2436, "20776f726b73": 2437, "2074726164": 2438, "20656d62": 2439, "2072656d61696e": 2440, "206d656d626572": 2441, "2063757272656e746c79": 2442, "20726573756c7473": 2443, "6174746c65": 2444, "20646576696365": 2445, "2052657075626c6963": 2446, "20686967686572": 2447, "2063616d657261": 2448, "7a7a": 2449, "20747269": 2450, "20736f6c64": 2451, "20636f6f6b": 2452, "20666f6f74": 2453, "20656666": 2454, "20676972": 2455, "20547261": 2456, "20536f757468": 2457, "63686965": 2458, "20506f6c": 2459, "20486973": 2460, "20636f6d6d6f6e": 2461, "20636f6d6d756e6963": 2462, "20556e69746564": 2463, "2063656e7472616c": 2464, "20636f6e74696e7565": 2465, "2074797065": 2466, "20726563656e746c79": 2467, "616374696f6e": 2468, "206365": 2469, "2063726564": 2470, "20666974": 2471, "2066757274686572": 2472, "206d6f74": 2473, "206d6978": 2474, "20646f75": 2475, "696f6e616c": 2476, "206c6174": 2477, "206c6963": 2478, "206c6976696e67": 2479, "204166746572": 2480, "20646567": 2481, "6173746963": 2482, "5468657265": 2483, "20656e73": 2484, "20537461746573": 2485, "206c696b656c79": 2486, "2065766572796f6e65": 2487, "2065766572797468696e67": 2488, "204e657773": 2489, "206c6f6e676572": 2490, "20617373697374": 2491, "2068616e6473": 2492, "2066756e6374696f6e": 2493, "20697373756573": 2494, "20616e6e6f756e": 2495, "5453": 2496, "6272": 2497, "696f64": 2498, "746573": 2499, "206f696c": 2500, "20667265": 2501, "20726576656e7565": 2502, "205477": 2503, "20414d": 2504, "204d61726368": 2505, "20446570": 2506, "204e65": 2507, "204564": 2508, "2072617465": 2509, "2056616c": 2510, "207175697465": 2511, "20736f6d656f6e65": 2512, "20696d70616374": 2513, "2074726176656c": 2514, "207369676e69666963": 2515, "20637573746f6d6572": 2516, "2063697263756974": 2517, "20657370656369616c6c79": 2518, "2053756e646179": 2519, "66756c6c79": 2520, "756765": 2521, "2074616b696e67": 2522, "6e6473": 2523, "2070696374": 2524, "207075626c": 2525, "206d6572": 2526, "206d6170": 2527, "20647565": 2528, "63746f72": 2529, "2073747261": 2530, "204d696368": 2531, "203237": 2532, "2070726f706f73": 2533, "6966756c": 2534, "726965": 2535, "204a757374": 2536, "6167696e67": 2537, "20636f6e7369646572": 2538, "2032303039": 2539, "20706f6c6974": 2540, "2070726f7669646564": 2541, "5768656e": 2542, "20746170": 2543, "2070726564": 2544, "20706c65617365": 2545, "65646572616c": 2546, "2064616d": 2547, "65747465": 2548, "2069736e": 2549, "207765656b656e64": 2550, "20726973": 2551, "206162696c697479": 2552, "69706c65": 2553, "206f6666696365": 2554, "207265636f6d6d": 2555, "6f766564": 2556, "20636f6c6c656374": 2557, "207265636569766564": 2558, "2070726f626c656d73": 2559, "206275696c64696e67": 2560, "20636c61696d73": 2561, "20696d70726f7665": 2562, "7566616374": 2563, "207265636f6d6d656e64": 2564, "637269": 2565, "657279": 2566, "6f756c": 2567, "616e696573": 2568, "616d73": 2569, "2073656c66": 2570, "72657368": 2571, "204f66": 2572, "20616c6d6f7374": 2573, "204a756c79": 2574, "2072657370656374": 2575, "6f6e646179": 2576, "73686970": 2577, "206d65646961": 2578, "20416d6572696361": 2579, "2064697363757373": 2580, "207175657374696f6e73": 2581, "206164646974696f6e616c": 2582, "20656e67696e65": 2583, "206661766f72697465": 2584, "206265686176696f72": 2585, "2077656273697465": 2586, "2023": 2587, "c3a9": 2588, "616c74": 2589, "6172746572": 2590, "2073746179": 2591, "20617474656e64": 2592, "20646562": 2593, "756e6974696573": 2594, "6973746963": 2595, "20456c": 2596, "20766f74": 2597, "2076696374": 2598, "2073686f6f74": 2599, "204f6374": 2600, "206f757473696465": 2601, "20706572696f64": 2602, "207265636f676e": 2603, "206167726565": 2604, "20636f6c6c": 2605, "206e6565646564": 2606, "2054656368": 2607, "206861707079": 2608, "20706f736974696f6e": 2609, "204173736f63": 2610, "4d53": 2611, "616964": 2612, "69766572": 2613, "72656c": 2614, "2066616365": 2615, "6f6d6573": 2616, "206c6966": 2617, "2067726f756e64": 2618, "20536f63": 2619, "736565": 2620, "20526564": 2621, "2064656c69": 2622, "20646f6375": 2623, "20636c6f73": 2624, "20757064": 2625, "2053747564": 2626, "205768696c65": 2627, "20726567617264": 2628, "2073696d706c79": 2629, "20637573746f6d657273": 2630, "2070726f746563746564": 2631, "61747572646179": 2632, "4174": 2633, "4949": 2634, "5f5f": 2635, "6b6574": 2636, "70726f": 2637, "726179": 2638, "20736f7274": 2639, "204972": 2640, "616d61": 2641, "207374796c65": 2642, "20636f6d6d656e7473": 2643, "204765": 2644, "204e6f727468": 2645, "206d656574": 2646, "20576562": 2647, "2077616e746564": 2648, "206c6f6361746564": 2649, "20696e637265617365": 2650, "206c6576656c73": 2651, "207369676e69666963616e74": 2652, "3232": 2653, "6c696572": 2654, "6f6666": 2655, "726567": 2656, "206379": 2657, "20666967": 2658, "2066617374": 2659, "207061726b": 2660, "2072656c65": 2661, "6964656e6365": 2662, "616464": 2663, "204279": 2664, "20506174": 2665, "204e6f7665": 2666, "206e6f7468696e67": 2667, "20736177": 2668, "20636c616e": 2669, "2067656e6572616c": 2670, "206d6f6d656e74": 2671, "206368696c6472656e": 2672, "2d2d": 2673, "6f6573": 2674, "76657374": 2675, "206163686965": 2676, "206c617465": 2677, "20666f7277617264": 2678, "2047726f7570": 2679, "616e6473": 2680, "206368616e6365": 2681, "69706d656e74": 2682, "20626c6f636b": 2683, "2070686f6e65": 2684, "2072756e6e696e67": 2685, "206576656e7473": 2686, "20696e766573746967": 2687, "20646573637269626564": 2688, "20746f756368": 2689, "486f77": 2690, "506f7374": 2691, "6c69676874": 2692, "7a65": 2693, "2066616972": 2694, "20696e6e": 2695, "204d65": 2696, "2072656c6174696f6e73": 2697, "6c65646765": 2698, "207465726d73": 2699, "2062656175746966756c": 2700, "416c": 2701, "4f55": 2702, "536f": 2703, "636f6d65": 2704, "69726573": 2705, "2074616b6573": 2706, "20617564": 2707, "20737573": 2708, "69747a": 2709, "2062696c6c696f6e": 2710, "20677261": 2711, "2054756573646179": 2712, "20737465": 2713, "20576564": 2714, "696666": 2715, "2073686970": 2716, "20616273": 2717, "20776865656c": 2718, "2074656163": 2719, "617679": 2720, "207370656e74": 2721, "20636f6f6c": 2722, "203636": 2723, "206465636973696f6e": 2724, "20467269646179": 2725, "207465726d696e616c": 2726, "2064657369676e6564": 2727, "2061736b6564": 2728, "206f70706f7274756e697479": 2729, "204e6f76656d626572": 2730, "3136": 2731, "4368": 2732, "436c": 2733, "697070696e67": 2734, "20736c65": 2735, "61747572616c": 2736, "69736573": 2737, "20626564": 2738, "2053657276": 2739, "757267": 2740, "616475": 2741, "205061726b": 2742, "2068656c64": 2743, "203236": 2744, "203238": 2745, "6b6579": 2746, "6f6f73": 2747, "20446179": 2748, "656d7074": 2749, "6f646179": 2750, "206e6563657373": 2751, "20636f6e7461696e": 2752, "2050726f64756374": 2753, "20726967687473": 2754, "206c6f636174696f6e": 2755, "20696e7374656164": 2756, "2063726561746564": 2757, "2072656365697665": 2758, "2061637469766974696573": 2759, "20696e646976696475616c": 2760, "4f54": 2761, "50726f": 2762, "63696c": 2763, "757365": 2764, "76616c": 2765, "207461626c65": 2766, "20736f6e67": 2767, "656e696e67": 2768, "20626f78": 2769, "2070756c6c": 2770, "20646967": 2771, "205361747572646179": 2772, "204163": 2773, "204166": 2774, "61646573": 2775, "204d6f6e": 2776, "696c6c65": 2777, "72616674": 2778, "207761736e": 2779, "204f6666": 2780, "6976697479": 2781, "206b696473": 2782, "636c7573": 2783, "20736f6f6e": 2784, "697a696e67": 2785, "204b65": 2786, "207175616c": 2787, "2070726570": 2788, "207468726f7567686f7574": 2789, "20636f6c6c656765": 2790, "20616363657074": 2791, "205175": 2792, "206d6f766965": 2793, "2065717569706d656e74": 2794, "206472697665": 2795, "206170706c69636174696f6e": 2796, "20616e696d616c73": 2797, "20507265736964656e74": 2798, "4641": 2799, "5245": 2800, "6570656e64": 2801, "72696d": 2802, "2061766572616765": 2803, "6f72696e67": 2804, "657365": 2805, "656e696f72": 2806, "206c696e6573": 2807, "757274": 2808, "7572616e6365": 2809, "207374616666": 2810, "6172746d656e74": 2811, "6f757465": 2812, "697a6573": 2813, "6962696c697479": 2814, "20706c6179696e67": 2815, "726f75676874": 2816, "20313938": 2817, "2032303036": 2818, "2053657074656d626572": 2819, "207765656b73": 2820, "206d6174746572": 2821, "50686f6e65": 2822, "68617073": 2823, "696e617279": 2824, "6f6e7365": 2825, "2077617973": 2826, "2063616e64": 2827, "20636f7079": 2828, "6573746572": 2829, "20646f6d": 2830, "6f6d73": 2831, "20737461746573": 2832, "6f6c7574696f6e": 2833, "20576f726b": 2834, "20757375616c6c79": 2835, "205570": 2836, "6176696e67": 2837, "2074727565": 2838, "20737065616b": 2839, "20726f6c65": 2840, "20726f6164": 2841, "207072696d": 2842, "2067726f777468": 2843, "2076657273696f6e": 2844, "20656475636174696f6e": 2845, "5553": 2846, "57697468": 2847, "61696c79": 2848, "6d6f6e": 2849, "20616374696f6e": 2850, "20737765": 2851, "61746f7279": 2852, "2077696465": 2853, "616e6368": 2854, "20696e6a": 2855, "656e746c79": 2856, "206566666963": 2857, "20676f6c64": 2858, "e28093": 2859, "204167": 2860, "204d6f6e646179": 2861, "2070726f6365": 2862, "6f6f7365": 2863, "20766961": 2864, "206578697374": 2865, "6f736973": 2866, "204a616e": 2867, "696465726564": 2868, "2073617665": 2869, "20676f616c": 2870, "20616e796f6e65": 2871, "20626563616d65": 2872, "206c6f6f6b73": 2873, "2032303038": 2874, "2066696e697368": 2875, "726f7773": 2876, "207374617274696e67": 2877, "20617474656e74696f6e": 2878, "20707265736964656e74": 2879, "20666f6c6c6f776564": 2880, "20626f6f6b73": 2881, "206368616e676573": 2882, "2077726974696e67": 2883, "696272617279": 2884, "20776f6e646572": 2885, "2063617373": 2886, "2062617365": 2887, "20626f7474": 2888, "206879": 2889, "656e74616c": 2890, "657479": 2891, "63656d626572": 2892, "756c6573": 2893, "204c6177": 2894, "205573": 2895, "2073636f7265": 2896, "6572766564": 2897, "54686174": 2898, "206275696c74": 2899, "726976696e67": 2900, "206f726967696e616c": 2901, "2073656c6563746564": 2902, "466562": 2903, "5368": 2904, "666c": 2905, "66616365": 2906, "6669656c64": 2907, "7768657265": 2908, "c2ae": 2909, "206177": 2910, "726563": 2911, "72656573": 2912, "20686f6c": 2913, "20464947": 2914, "206f766572616c6c": 2915, "2066656174757265": 2916, "616d70696f6e73": 2917, "7072697365": 2918, "2070726f6772616d73": 2919, "20636172656572": 2920, "206469726563746c79": 2921, "207374616e64617264": 2922, "20696e766f6c766564": 2923, "204465706172746d656e74": 2924, "2072656c6174696f6e73686970": 2925, "61656c": 2926, "20746f7572": 2927, "657263": 2928, "206661": 2929, "2066697265": 2930, "20686974": 2931, "736563": 2932, "206974656d": 2933, "2042726f": 2934, "20427573696e657373": 2935, "204e6f77": 2936, "204a6f75726e616c": 2937, "20636f6d70616e696573": 2938, "696566": 2939, "20636c69636b": 2940, "20696d6d": 2941, "204865616c7468": 2942, "20707269636573": 2943, "20636f6c6f72": 2944, "2067726561746572": 2945, "206173736f63": 2946, "206c656164696e67": 2947, "20696e74657276696577": 2948, "20726573706f6e7365": 2949, "20696e746572657374696e67": 2950, "2062726f6164": 2951, "2070726f66657373696f6e616c": 2952, "2043616c6966": 2953, "204173736f63696174696f6e": 2954, "4c41": 2955, "6d61": 2956, "6d6974746564": 2957, "696e746572": 2958, "2063617264": 2959, "656e6765": 2960, "2062616c": 2961, "2062726f75676874": 2962, "2064657374": 2963, "2068756765": 2964, "20506f7274": 2965, "20446973": 2966, "616279": 2967, "20476f": 2968, "61676f": 2969, "706c6573": 2970, "207468656d73656c766573": 2971, "20626c6f6f64": 2972, "20666c6f6f72": 2973, "203630": 2974, "79736973": 2975, "207375626a656374": 2976, "20657870657269656e": 2977, "2073696d706c65": 2978, "2065787072657373": 2979, "206d65646963616c": 2980, "7567757374": 2981, "2070726f74656374": 2982, "20636f75706c65": 2983, "3233": 2984, "61756c": 2985, "646f776e": 2986, "67726f756e64": 2987, "697065": 2988, "6c696b65": 2989, "7273": 2990, "69746174696f6e": 2991, "69746f7273": 2992, "2070616e": 2993, "2070657273": 2994, "6f757261": 2995, "617269616e": 2996, "656e7479": 2997, "726f6c6c": 2998, "20666f726d6572": 2999, "726171": 3000, "20446176": 3001, "20636f6d6d656e74": 3002, "20466562": 3003, "2064656164": 3004, "20657863657074": 3005, "2072616e6b": 3006, "20496e63": 3007, "20496e746572": 3008, "20696d616765": 3009, "206d616e6167656d656e74": 3010, "20736572766572": 3011, "20736572696f7573": 3012, "206368656d": 3013, "20646566696e": 3014, "20646566656e7365": 3015, "20736974756174696f6e": 3016, "206973737565": 3017, "656e677468": 3018, "206c696d69746564": 3019, "6d696e697374": 3020, "20717569636b6c79": 3021, "20436f756e7479": 3022, "6372697074696f6e": 3023, "204f63746f626572": 3024, "3137": 3025, "4654": 3026, "494f4e": 3027, "4e6f": 3028, "5365": 3029, "2074726962": 3030, "2073656e7365": 3031, "20626f": 3032, "207061706572": 3033, "206472657373": 3034, "6c6578": 3035, "206e6174757265": 3036, "206e616d6564": 3037, "20656174": 3038, "20536561726368": 3039, "75746564": 3040, "207374616765": 3041, "20506f7374": 3042, "20646570617274": 3043, "204765726d": 3044, "204f62": 3045, "206e6567": 3046, "20776f726b6564": 3047, "20636f6d6d6974": 3048, "20726567756c6172": 3049, "61697273": 3050, "20436c7562": 3051, "2073686f7773": 3052, "20766172696f7573": 3053, "206578747261": 3054, "20726564756365": 3055, "20456e67696e65": 3056, "20636f6e6e6563746564": 3057, "2074726561746d656e74": 3058, "2077616974": 3059, "6964646c65": 3060, "20706f74656e7469616c": 3061, "20657373": 3062, "3138": 3063, "3234": 3064, "2074616c": 3065, "20627564": 3066, "20626167": 3067, "61736b": 3068, "206e6f726d": 3069, "2053616d": 3070, "20626567616e": 3071, "20414e": 3072, "20417574": 3073, "2073747269": 3074, "20697473656c66": 3075, "2052696368": 3076, "636b73": 3077, "6f7065": 3078, "20476c": 3079, "616e646572": 3080, "20796f757273656c66": 3081, "20676f616c73": 3082, "204368696e61": 3083, "20656e746572": 3084, "2073747564656e74": 3085, "207265616479": 3086, "20636f756e7472696573": 3087, "617a696e67": 3088, "20696e73696465": 3089, "2064697374726962": 3090, "206261736b6574": 3091, "207772697474656e": 3092, "20696e666c": 3093, "206f7074696f6e73": 3094, "206d756c7469706c65": 3095, "3033": 3096, "4265": 3097, "4741": 3098, "546f": 3099, "63686572": 3100, "6d696e67": 3101, "70697465": 3102, "7379": 3103, "6174746572": 3104, "6172696573": 3105, "61736f6e73": 3106, "206c6f776572": 3107, "20416363": 3108, "20436f6e73": 3109, "2063616e636572": 3110, "616b6572": 3111, "6163686564": 3112, "2067657473": 3113, "2070726576656e74": 3114, "72656e67": 3115, "616e6775": 3116, "20696e636c75646564": 3117, "20706f6c6c": 3118, "207468696e6b696e67": 3119, "2072656c61746564": 3120, "20446563656d626572": 3121, "2064656369646564": 3122, "2073746f726573": 3123, "20706f6c696365": 3124, "20706f6c696379": 3125, "20417274": 3126, "2043616e6164": 3127, "6f726e6961": 3128, "20706f70756c6172": 3129, "206573746162": 3130, "696679696e67": 3131, "2078": 3132, "4f6e65": 3133, "6e73": 3134, "206166": 3135, "2063726f7373": 3136, "20627573": 3137, "20626f79": 3138, "206569676874": 3139, "2049726171": 3140, "2053616e": 3141, "20536368": 3142, "20536f6d65": 3143, "2073746f70": 3144, "696c6c696e67": 3145, "206f7264": 3146, "20657863656c6c": 3147, "204f7574": 3148, "204a65": 3149, "756465": 3150, "20636f6d706c": 3151, "2075706f6e": 3152, "20676f6573": 3153, "20696d6d6564": 3154, "20537472656574": 3155, "207061727479": 3156, "207072696e74": 3157, "2052656164": 3158, "2066696e616e6369616c": 3159, "20426c61636b": 3160, "206561727468": 3161, "20736c69676874": 3162, "20696e7370": 3163, "2070726f766964696e67": 3164, "206f7267616e697a": 3165, "6175676874": 3166, "206769667473": 3167, "2070726976617465": 3168, "617368696e67746f6e": 3169, "207269736b": 3170, "3237": 3171, "3439": 3172, "636f": 3173, "6361757365": 3174, "75616c73": 3175, "72656d65": 3176, "6974617279": 3177, "656e6564": 3178, "2062697264": 3179, "206665646572616c": 3180, "2070656e": 3181, "20686172": 3182, "206c656e73": 3183, "20494e": 3184, "696461": 3185, "206f6e6573": 3186, "204d6f7374": 3187, "2042726974": 3188, "2044656c": 3189, "20486572": 3190, "204f70656e": 3191, "69766973696f6e": 3192, "e2809d2e": 3193, "69636b73": 3194, "6f7665726564": 3195, "6f75676874": 3196, "2048657265": 3197, "20636f6e73697374": 3198, "20636f6e73696465726564": 3199, "20747261696e696e67": 3200, "206b6e6f776c65646765": 3201, "20617474656d7074": 3202, "207365727665": 3203, "20546578": 3204, "20736c6f77": 3205, "206175746f6d": 3206, "20636f757274": 3207, "204d616e6167656d656e74": 3208, "20706f736974697665": 3209, "206163746976697479": 3210, "20636f6e646974696f6e": 3211, "20706172746963756c61726c79": 3212, "6f73706974616c": 3213, "20706879736963616c": 3214, "6e6573646179": 3215, "20637265646974": 3216, "206c6174657374": 3217, "2043616c69666f726e6961": 3218, "20766572": 3219, "3238": 3220, "63617374": 3221, "6e616d65": 3222, "7a79": 3223, "20616666": 3224, "20736e": 3225, "20706d": 3226, "616c6d": 3227, "206d6964": 3228, "617261": 3229, "6f6d70": 3230, "737472": 3231, "20546f70": 3232, "696d656e74": 3233, "20756c74": 3234, "20426179": 3235, "20446972656374": 3236, "20526f62": 3237, "6865726e": 3238, "20486f757365": 3239, "205468656e": 3240, "20706c616e74": 3241, "2074657874": 3242, "756c7473": 3243, "2072656c6174697665": 3244, "206775657373": 3245, "20446563": 3246, "20536f667477617265": 3247, "20636f6d706c6578": 3248, "2066616d696c": 3249, "2072657374617572": 3250, "206950686f6e65": 3251, "206c6567616c": 3252, "20466c6f72": 3253, "20636f6d7065746974696f6e": 3254, "20616e6e6f756e636564": 3255, "4352": 3256, "66617374": 3257, "69616d": 3258, "6c6f67": 3259, "6d7074": 3260, "68657374": 3261, "6f6e61": 3262, "20736f75726365": 3263, "2063617368": 3264, "69736f6e": 3265, "6973696f6e73": 3266, "206669676874": 3267, "206c6564": 3268, "2072657665": 3269, "7574697665": 3270, "6f77657273": 3271, "20504f53": 3272, "20736576656e": 3273, "2064656c": 3274, "20646570656e64": 3275, "204c414e": 3276, "61696e74": 3277, "204a6573": 3278, "2073616665": 3279, "7275617279": 3280, "2066656564": 3281, "6578616d706c65": 3282, "20656173696c79": 3283, "2076617269657479": 3284, "20646973706c61796564": 3285, "20616e696d616c": 3286, "206d6174657269616c": 3287, "205465786173": 3288, "4141": 3289, "4f7572": 3290, "5053": 3291, "61726573": 3292, "656573": 3293, "6775": 3294, "75617279": 3295, "20616666656374": 3296, "20736174": 3297, "20626f617264": 3298, "206672657368": 3299, "206d6963726f": 3300, "69636f": 3301, "206c6179": 3302, "206c6f6164": 3303, "20726576": 3304, "206e61747572616c": 3305, "20496c6c": 3306, "20676173": 3307, "69646765": 3308, "204d72": 3309, "204d6167": 3310, "20426572": 3311, "2042726f776e": 3312, "20776562": 3313, "2073656374696f6e": 3314, "2048756d": 3315, "756c6174696f6e73": 3316, "2047616d65": 3317, "2065786563": 3318, "20616c74686f756768": 3319, "207573657273": 3320, "6172656e": 3321, "206d656574696e67": 3322, "204b6e": 3323, "206d616e7566616374": 3324, "206b657973": 3325, "2072656d656d626572": 3326, "20696e74656772": 3327, "6f756e63696c": 3328, "207374657073": 3329, "20617070726f616368": 3330, "20636f737473": 3331, "2077726f6e67": 3332, "20636f6d706c6574656c79": 3333, "20706c61636573": 3334, "2063656c6c73": 3335, "2073756d6d6572": 3336, "20616e73776572": 3337, "3730": 3338, "5343": 3339, "5448": 3340, "69626572": 3341, "6a757374": 3342, "707269": 3343, "7578": 3344, "2074656e": 3345, "65737465726e": 3346, "2066656c74": 3347, "20706c65": 3348, "207061676573": 3349, "20706172656e74": 3350, "20647275": 3351, "69636c6573": 3352, "766579": 3353, "20656c65": 3354, "2067656e": 3355, "2032303134": 3356, "61766573": 3357, "207365637572697479": 3358, "2073657474": 3359, "20416464": 3360, "206d696e696d": 3361, "207665746572": 3362, "20456e676c697368": 3363, "2064657461696c73": 3364, "616d70696f6e73686970": 3365, "4e6577": 3366, "5043": 3367, "636f6e74": 3368, "72617374": 3369, "76696e": 3370, "617469766573": 3371, "20636974": 3372, "20637261": 3373, "206361757365": 3374, "2063617473": 3375, "2066696e65": 3376, "206d6973": 3377, "206d6167": 3378, "6172696c79": 3379, "20686f72": 3380, "20546f72": 3381, "6964696e67": 3382, "20417567757374": 3383, "204d616c": 3384, "20636f6d666f7274": 3385, "2046726f6d": 3386, "20484956": 3387, "204c616b65": 3388, "207368616c6c": 3389, "6f757274": 3390, "20646f67": 3391, "746565": 3392, "20736166": 3393, "20636c7562": 3394, "72756974": 3395, "206d61796265": 3396, "20707265666572": 3397, "20636f766572": 3398, "20636f616368": 3399, "206c6f6f6b6564": 3400, "2032303037": 3401, "2066696e616c6c79": 3402, "2066696e6973686564": 3403, "2072656c6967": 3404, "206d656d6f7279": 3405, "20736179696e67": 3406, "20666f75727468": 3407, "205265736561726368": 3408, "2067726f757073": 3409, "207369746573": 3410, "207265666c656374": 3411, "20626567696e6e696e67": 3412, "207072696f72": 3413, "207469746c65": 3414, "2072656c6561736564": 3415, "206e6563657373617279": 3416, "313030": 3417, "6c6f636b": 3418, "2077696c64": 3419, "2072656c65617365": 3420, "726f6f6d": 3421, "206769766573": 3422, "2073746f72696573": 3423, "207374756666": 3424, "20426172": 3425, "20776569676874": 3426, "2070726f6772657373": 3427, "756e67": 3428, "2063686f696365": 3429, "2070657268617073": 3430, "203331": 3431, "72757074": 3432, "2066656574": 3433, "20416e6765": 3434, "20696e73747275": 3435, "20546563686e": 3436, "20696e737572616e6365": 3437, "20627261696e": 3438, "2070726f6a65637473": 3439, "206368616e676564": 3440, "205068696c": 3441, "207069656365": 3442, "206c69746572": 3443, "20776865656c6368": 3444, "6570656e64656e74": 3445, "222c": 3446, "4345": 3447, "4e45": 3448, "4e6f77": 3449, "686f6c64": 3450, "6b696e": 3451, "72616e6765": 3452, "7370": 3453, "74696573": 3454, "75656c": 3455, "2062616e6b": 3456, "206d6f756e74": 3457, "207265616368": 3458, "20496d": 3459, "2054696d65": 3460, "20436c65": 3461, "2057617368696e67746f6e": 3462, "207365656b": 3463, "7269616e": 3464, "20646570": 3465, "20477265656e": 3466, "206578686962": 3467, "2064697365": 3468, "2059656172": 3469, "2043686172": 3470, "20566972": 3471, "2073636865": 3472, "2061726368": 3473, "697368696e67": 3474, "20616d617a696e67": 3475, "63726574": 3476, "206361727279": 3477, "20646966666572656e6365": 3478, "204c6561677565": 3479, "20496e6469616e": 3480, "20696e7465726573746564": 3481, "20696e766573746d656e74": 3482, "206d617463686573": 3483, "2064657669636573": 3484, "706f726174696f6e": 3485, "4f5353": 3486, "206f7074696d": 3487, "206472696e6b": 3488, "20616e616c79": 3489, "20656e636f757261": 3490, "204d69636861656c": 3491, "205765646e6573646179": 3492, "20657863656c6c656e74": 3493, "3333": 3494, "4142": 3495, "446f6e": 3496, "4d49": 3497, "4d61726368": 3498, "5052": 3499, "6261736564": 3500, "67657273": 3501, "68616d": 3502, "6c696e": 3503, "6d697373696f6e": 3504, "207472696564": 3505, "206177617265": 3506, "65727665": 3507, "6f726765": 3508, "2066616e73": 3509, "2066696c65": 3510, "206669726d": 3511, "20746f7761726473": 3512, "76657265": 3513, "20676172": 3514, "696d6174656c79": 3515, "204d7573": 3516, "204d6163": 3517, "6972696e67": 3518, "20736578": 3519, "20456d": 3520, "2076696465": 3521, "206578657263": 3522, "61696e6564": 3523, "206c65617665": 3524, "6163696e67": 3525, "206d7973656c66": 3526, "6974656c79": 3527, "20696d61676573": 3528, "6974696f6e616c": 3529, "206172726976": 3530, "20416e6e": 3531, "206f776e6572": 3532, "20677579": 3533, "20436c617373": 3534, "20686967686c79": 3535, "20416c736f": 3536, "20726573706f6e64": 3537, "20616476616e74": 3538, "7374616e64696e67": 3539, "20436f6d6d697373696f6e": 3540, "20706c61636564": 3541, "2061707065617273": 3542, "2063756c74757265": 3543, "206566666f7274": 3544, "20706f6c69746963616c": 3545, "20726567617264696e67": 3546, "222e": 3547, "3236": 3548, "4241": 3549, "454f": 3550, "656564": 3551, "6b79": 3552, "6d6174": 3553, "706f7365": 3554, "72656374": 3555, "20636974696573": 3556, "616c79": 3557, "206d617373": 3558, "206c61636b": 3559, "20537065": 3560, "2053696e6365": 3561, "204d6f62696c65": 3562, "696c6573": 3563, "69726974": 3564, "20427261": 3565, "20686176656e": 3566, "2073656c656374696f6e": 3567, "756e74": 3568, "204576657279": 3569, "204c61": 3570, "204f46": 3571, "204a756c": 3572, "204a61636b": 3573, "206a6f79": 3574, "666f726365": 3575, "2073706f74": 3576, "20726f6c6c": 3577, "20636f616c": 3578, "72656e636573": 3579, "20636f6c6c656374696f6e": 3580, "2050726f66": 3581, "207472616e73616374696f6e": 3582, "206561726c696572": 3583, "207265636f726473": 3584, "20696e6372656173696e67": 3585, "207475726e6564": 3586, "757273646179": 3587, "2050656f706c65": 3588, "206d657373616765": 3589, "20656e73757265": 3590, "2063616e646964": 3591, "2070726f6365656473": 3592, "204a616e75617279": 3593, "206361737365747465": 3594, "202c": 3595, "4752": 3596, "6368656e": 3597, "84a2": 3598, "e284a2": 3599, "206170617274": 3600, "696e6e6572": 3601, "2073616c65": 3602, "2063617374": 3603, "206269": 3604, "65646963": 3605, "616e61": 3606, "616c64": 3607, "206d656e74696f6e": 3608, "2064616e6365": 3609, "69636564": 3610, "206c616e6775": 3611, "20726562": 3612, "2067756e": 3613, "20677265656e": 3614, "20676f6c66": 3615, "657474": 3616, "2062656174": 3617, "20737472656e67": 3618, "69727468": 3619, "2068656172": 3620, "204669727374": 3621, "206578616374": 3622, "2072696d": 3623, "204f68": 3624, "20706c6174": 3625, "6170616e": 3626, "206a7564": 3627, "206a756d70": 3628, "206b6974": 3629, "2061646d696e697374": 3630, "6163686573": 3631, "6f75736c79": 3632, "206170706c": 3633, "2071756172746572": 3634, "206b6e6577": 3635, "2073796d7074": 3636, "2032303032": 3637, "7465726e6174697665": 3638, "20416e79": 3639, "2068656c7073": 3640, "6f6c6f676963616c": 3641, "206c656164657273": 3642, "696e657365": 3643, "206772616475": 3644, "20696e63726561736564": 3645, "69656e6379": 3646, "20736f6369657479": 3647, "206d61696e7461696e": 3648, "2070686f746f6772617068": 3649, "206170706c69636174696f6e73": 3650, "2063616d706169676e": 3651, "204175737472616c6961": 3652, "204175737472616c69616e": 3653, "207075726368617365": 3654, "207574696c": 3655, "2063656c65": 3656, "20466c6f72696461": 3657, "20736166657479": 3658, "4166746572": 3659, "63756c": 3660, "6d6f7265": 3661, "6f6964": 3662, "6f6b65": 3663, "6f7070696e67": 3664, "796f6e64": 3665, "207469636b": 3666, "68656c": 3667, "2077696665": 3668, "20626c65": 3669, "2062616e64": 3670, "616e63696e67": 3671, "20647279": 3672, "6f6d62": 3673, "2072656665": 3674, "20496e74": 3675, "206765": 3676, "205456": 3677, "20417265": 3678, "20436170": 3679, "2043616d70": 3680, "205061756c": 3681, "206865617679": 3682, "203239": 3683, "6f6f706572": 3684, "617465766572": 3685, "72697665": 3686, "2064656570": 3687, "6f63616c": 3688, "2032303135": 3689, "2077686f7365": 3690, "205468616e6b73": 3691, "20636f6e7472616374": 3692, "20726567696f6e": 3693, "73686172696e67": 3694, "20646f776e6c6f6164": 3695, "206f6273": 3696, "617a6f6e": 3697, "20636861726765": 3698, "2042656361757365": 3699, "2066756c6c79": 3700, "206f70656e696e67": 3701, "20506c6179": 3702, "2070686f746f": 3703, "2070686f746f73": 3704, "206f63637572": 3705, "2066756e64696e67": 3706, "20696e7465726e6174696f6e616c": 3707, "206368616c6c656e67": 3708, "20737461747573": 3709, "20646f63756d656e74": 3710, "2042726974697368": 3711, "454641": 3712, "4e6f74": 3713, "6861": 3714, "72616d": 3715, "206177617264": 3716, "20776174": 3717, "2077616c6c": 3718, "206f7074696f6e": 3719, "2062696c6c": 3720, "20746f776e": 3721, "206d696365": 3722, "2064697265": 3723, "2064726f70": 3724, "7374617465": 3725, "726f7465": 3726, "2053756e": 3727, "757468": 3728, "204144": 3729, "6f6c6172": 3730, "6f6c6963": 3731, "205052": 3732, "20506c65617365": 3733, "696674": 3734, "204844": 3735, "206465636c": 3736, "6f7068": 3737, "2045617374": 3738, "6f73757265": 3739, "20616c6f6e65": 3740, "20496e73746974": 3741, "20636f6e7461696e73": 3742, "20706172746e657273": 3743, "207472616465": 3744, "2057656c6c": 3745, "207370656374": 3746, "206163637572": 3747, "20696d706c656d656e74": 3748, "697373696f6e73": 3749, "205768697465": 3750, "2067757973": 3751, "2072657461696c": 3752, "206e756d62657273": 3753, "206f627461696e": 3754, "617a696e65": 3755, "2073746f726564": 3756, "206f7065726174696e67": 3757, "20656666656374697665": 3758, "32303132": 3759, "207072657373757265": 3760, "20737472756374757265": 3761, "207375636365737366756c": 3762, "20666f72657374": 3763, "206d696c6974617279": 3764, "2065636f6e6f6d6963": 3765, "20776f726473": 3766, "205375706572": 3767, "20544845": 3768, "204575726f7065616e": 3769, "2044657369676e": 3770, "207075626c6973686564": 3771, "204166726963": 3772, "204665627275617279": 3773, "416c6c": 3774, "4e6f76": 3775, "4f50": 3776, "4f6374": 3777, "626f72": 3778, "62726f": 3779, "626f78": 3780, "626f6479": 3781, "6e7574": 3782, "746f70": 3783, "76696c6c65": 3784, "6f6e656e74": 3785, "2073696c": 3786, "20776f6f64": 3787, "2077726f7465": 3788, "617263": 3789, "2064726976696e67": 3790, "20686f7573": 3791, "206c6162": 3792, "206c69766573": 3793, "20544f": 3794, "2054696d6573": 3795, "205377": 3796, "20437572": 3797, "207374617273": 3798, "206865617264": 3799, "2073656c6c": 3800, "65737473": 3801, "756e6b": 3802, "2047656e6572": 3803, "204e48": 3804, "20456172": 3805, "20636f6d7061726564": 3806, "696e6473": 3807, "6f72646572": 3808, "6f62616c": 3809, "20726f636b": 3810, "6d65726369616c": 3811, "2073796e": 3812, "637265656e": 3813, "20576879": 3814, "20416473": 3815, "20627573696e6573736573": 3816, "20696e74726f6475": 3817, "20616c6c6f7773": 3818, "2074616c6b696e67": 3819, "20706f70756c6174696f6e": 3820, "2063686172616374657273": 3821, "20646961676e": 3822, "204d61726b6574696e67": 3823, "20726573706f6e7369626c65": 3824, "6164656d6963": 3825, "2070726576696f75736c79": 3826, "20646f7562": 3827, "207374726169676874": 3828, "20536f6369616c": 3829, "204461766964": 3830, "20627564676574": 3831, "4162": 3832, "4c4c": 3833, "536865": 3834, "6b7261": 3835, "776f6f64": 3836, "77697365": 3837, "69747574696f6e": 3838, "2066657374": 3839, "20666978": 3840, "696e676572": 3841, "207075": 3842, "616c6564": 3843, "206d6f6c64": 3844, "20746872656174": 3845, "206c656e677468": 3846, "726f73": 3847, "206570": 3848, "2053696d": 3849, "7665727365": 3850, "6f6c757465": 3851, "204d656c": 3852, "20526f757465": 3853, "204772656174": 3854, "20476f6c64": 3855, "20456167": 3856, "204576656e": 3857, "2032303030": 3858, "204f74686572": 3859, "20e280a6": 3860, "20646f6f72": 3861, "206e65636b": 3862, "2074656e64": 3863, "207265736f7572636573": 3864, "20436875726368": 3865, "204368696e657365": 3866, "69626c79": 3867, "20737072696e67": 3868, "207468657265666f7265": 3869, "2066656c6c": 3870, "206265636f6d6573": 3871, "20696d7072657373": 3872, "207072696e746572": 3873, "636f6d696e67": 3874, "20656e747279": 3875, "20726567697374": 3876, "2068696d73656c66": 3877, "20416476": 3878, "20646574656374": 3879, "203830": 3880, "206d6f6465726e": 3881, "206d65646963": 3882, "5768696c65": 3883, "207061747465726e": 3884, "32303131": 3885, "20776f6d616e": 3886, "20657374617465": 3887, "656e6e6573": 3888, "61756768746572": 3889, "206f6666696369616c73": 3890, "206365727461696e6c79": 3891, "206e6561726c79": 3892, "6572726f72": 3893, "20436f6d70616e79": 3894, "20646567726565": 3895, "20636f6c6c61626f72": 3896, "2061636869657665": 3897, "20646566696e6974656c79": 3898, "206f7267616e697a6174696f6e73": 3899, "20706172656e7473": 3900, "2064697365617365": 3901, "2e7c": 3902, "3735": 3903, "4441": 3904, "4578": 3905, "4d79": 3906, "576f726473": 3907, "61756c74": 3908, "626f6e": 3909, "64696e67": 3910, "65616c": 3911, "6969": 3912, "696174656c79": 3913, "766974": 3914, "7a61": 3915, "20777777": 3916, "206361736573": 3917, "2066696c6c": 3918, "20706164": 3919, "2070616964": 3920, "206d6f74686572": 3921, "20696e76656e74696f6e": 3922, "2064726f": 3923, "206265796f6e64": 3924, "69676572": 3925, "2073746172": 3926, "204d6578": 3927, "204275": 3928, "20426f617264": 3929, "20526574": 3930, "756e7465": 3931, "20457468": 3932, "2045617379": 3933, "20657874656e64": 3934, "20726f7574": 3935, "75737472": 3936, "656c696e65": 3937, "20636875726368": 3938, "54686579": 3939, "20646973617070": 3940, "207061727473": 3941, "207468616e6b73": 3942, "6f756e6473": 3943, "205765656b": 3944, "20636f6e73657276": 3945, "20526567": 3946, "20656e7465727461696e": 3947, "204164576f726473": 3948, "2077696e6e696e67": 3949, "2061637175": 3950, "2073757276": 3951, "617368696f6e": 3952, "206361706974616c": 3953, "2063656e746572": 3954, "2066696c6573": 3955, "207265737472696374": 3956, "20656173696572": 3957, "20617070726f707269": 3958, "20766568": 3959, "206c6574746572": 3960, "207772697465": 3961, "20636f6e646974696f6e73": 3962, "2062656e6566697473": 3963, "206d656173757265": 3964, "72656c61746564": 3965, "506f73746564": 3966, "2048756d616e": 3967, "656e6e6573736565": 3968, "3939": 3969, "5452": 3970, "626f7572": 3971, "706f696e74": 3972, "2074726f75": 3973, "20636f7265": 3974, "6f6d656e": 3975, "207468726f77": 3976, "206c6f766564": 3977, "20656d6572": 3978, "206772617068": 3979, "20416972": 3980, "63656564": 3981, "6368616e": 3982, "204d616b65": 3983, "20427265": 3984, "20636f6e63656e74": 3985, "205468656972": 3986, "2045616368": 3987, "20616c6c6567": 3988, "20706c617973": 3989, "20636872697374": 3990, "207465616368": 3991, "62657267": 3992, "204b6172656e": 3993, "20726573697374": 3994, "2043686963": 3995, "20736369656e74": 3996, "2070726563": 3997, "72656e6368": 3998, "20706f6f72": 3999, "2070726179": 4000, "20616374697665": 4001, "2077616e7473": 4002, "206b6e6f7773": 4003, "2068656c706564": 4004, "20536563": 4005, "2063617273": 4006, "756e64726564": 4007, "20446576656c6f70": 4008, "207369676e616c73": 4009, "20657870616e64": 4010, "2062696767657374": 4011, "206861726477617265": 4012, "206665656c696e67": 4013, "20636f6e74696e75": 4014, "206d6f766564": 4015, "75636b79": 4016, "206261736973": 4017, "206261736963": 4018, "2076617269": 4019, "2065787472656d65": 4020, "20616e6e75616c": 4021, "206d6f76656d656e74": 4022, "206964656e746966696564": 4023, "206964656173": 4024, "206f6666696369616c": 4025, "20696e646976696475616c73": 4026, "206f726967696e": 4027, "207072616374696365": 4028, "2065786369746564": 4029, "20646973636c6f7365": 4030, "20766963746f7279": 4031, "20736c656570": 4032, "20696e666c75": 4033, "20776865656c6368616972": 4034, "204d75736963": 4035, "47524f5353": 4036, "202b": 4037, "4172": 4038, "4243": 4039, "426c": 4040, "4279": 4041, "436f6e74": 4042, "4f57": 4043, "676172": 4044, "686f757365": 4045, "696f70": 4046, "2074726f": 4047, "2074617065": 4048, "726579": 4049, "20637275": 4050, "2062726f7773": 4051, "2062616279": 4052, "2066696c6c6564": 4053, "616c6573": 4054, "206d6f62696c65": 4055, "206465646963": 4056, "20746872656164": 4057, "6574726f": 4058, "657465726d": 4059, "6964656e7473": 4060, "20666f726365": 4061, "20436f756e63696c": 4062, "20506f776572": 4063, "205065746572": 4064, "2057696e": 4065, "20466f756e64": 4066, "204c6f7264": 4067, "756d73": 4068, "6f757473": 4069, "616b657273": 4070, "20556e646572": 4071, "206d65616e74": 4072, "206b696c6c6564": 4073, "20496e7374": 4074, "206d616e61676572": 4075, "2073706f727473": 4076, "207370656e64": 4077, "20636f756c646e": 4078, "656c6c6f77": 4079, "2073657473": 4080, "207375627374": 4081, "206865616c746879": 4082, "20636f6d706c65746564": 4083, "6f756e746572": 4084, "206469737472696374": 4085, "2067656e65726174696f6e": 4086, "2070617469656e7473": 4087, "2065666665637473": 4088, "2057617272656e": 4089, "696e636970": 4090, "49524741": 4091, "2064616d616765": 4092, "2064656c69766572": 4093, "20696d6d6564696174656c79": 4094, "2073796d70746f6d73": 4095, "20e2": 4096, "207269": 4097, "3f3f": 4098, "4144": 4099, "4164": 4100, "416363": 4101, "5649524741": 4102, "6c696665": 4103, "6e6f776e": 4104, "707265": 4105, "2074617374": 4106, "696e79": 4107, "20736f6e": 4108, "2073756e": 4109, "206361746567": 4110, "697370": 4111, "616c6e7574": 4112, "2064696564": 4113, "696361": 4114, "20686f6d": 4115, "20656174696e67": 4116, "616d62": 4117, "616d79": 4118, "6f776c": 4119, "696d696e": 4120, "736579": 4121, "6368616e6765": 4122, "20737479": 4123, "6f6c6573": 4124, "204d617274": 4125, "20426967": 4126, "205765737465726e": 4127, "2073656e64": 4128, "6573736f72": 4129, "6162696c6974696573": 4130, "20476574": 4131, "204c6574": 4132, "20766163": 4133, "207368697070696e67": 4134, "616e746c79": 4135, "20636861696e": 4136, "2063686f6f7365": 4137, "6976616e": 4138, "6976696c": 4139, "2055454641": 4140, "69676e6564": 4141, "206170706c79": 4142, "207370656e64696e67": 4143, "206261636b67726f756e64": 4144, "2032303034": 4145, "2032303035": 4146, "206f776e657273": 4147, "206c6561646572": 4148, "207375727072": 4149, "20636c6173736573": 4150, "2049736c616e64": 4151, "2072657475726e6564": 4152, "20736b696e": 4153, "7265616d73": 4154, "20416d617a6f6e": 4155, "207265706f72746564": 4156, "20636c6f73656c79": 4157, "2068696768657374": 4158, "206f63636173": 4159, "48657265": 4160, "207472756c79": 4161, "20657965": 4162, "20496e7465726e6174696f6e616c": 4163, "207069637475726573": 4164, "2070726f706f73616c": 4165, "2074656163686572": 4166, "20626f74746f6d": 4167, "206661697468": 4168, "2074616c656e74": 4169, "20736c696768746c79": 4170, "204a65737573": 4171, "20616476616e74616765": 4172, "3438": 4173, "353030": 4174, "436f6e": 4175, "636f68": 4176, "6c6f6f6b": 4177, "72616e": 4178, "736573": 4179, "756c65": 4180, "72656564": 4181, "20736f757468": 4182, "2077697368": 4183, "206f70": 4184, "20637570": 4185, "656e63": 4186, "697366": 4187, "2066616e": 4188, "65646961": 4189, "616c6c65": 4190, "2064656e": 4191, "206461726b": 4192, "2068756e64726564": 4193, "2074687573": 4194, "206c696b": 4195, "204944": 4196, "20537572": 4197, "6f7461": 4198, "20507265": 4199, "2077656172": 4200, "2044656d": 4201, "20636f6e63657074": 4202, "204576": 4203, "616e7461": 4204, "204a6572": 4205, "20646f63746f72": 4206, "756464": 4207, "636c696e67": 4208, "69636b79": 4209, "204368726973": 4210, "20776f726b657273": 4211, "20617070726563": 4212, "207065616365": 4213, "20726f62": 4214, "20313936": 4215, "616e676572": 4216, "206b657074": 4217, "2077696e746572": 4218, "2072656164696e67": 4219, "20737572726f756e64": 4220, "20736f6d6574696d6573": 4221, "20706f77657266756c": 4222, "206f7267616e697a6174696f6e": 4223, "20647269766572": 4224, "206a6f6273": 4225, "2068617070656e6564": 4226, "20636f6e73756d7074696f6e": 4227, "20496e7465726e6574": 4228, "206173736f636961746564": 4229, "206c616e6775616765": 4230, "20706c6174666f726d": 4231, "204d657869636f": 4232, "20696365": 4233, "3031": 4234, "3537": 4235, "4465": 4236, "4c617374": 4237, "534c": 4238, "536f6d65": 4239, "536561726368": 4240, "77697468": 4241, "79696e67": 4242, "696e6572": 4243, "207761726d": 4244, "6e646564": 4245, "6963696573": 4246, "617363": 4247, "617370": 4248, "206e616d6573": 4249, "20436f6e67": 4250, "75726e696e67": 4251, "696d62": 4252, "73657175": 4253, "2042656e": 4254, "7261656c": 4255, "205761746572": 4256, "20526f6164": 4257, "20736576657265": 4258, "7269616c": 4259, "2048616c6c": 4260, "746873": 4261, "75736564": 4262, "6973747279": 4263, "6f6379": 4264, "2075736573": 4265, "206d656368616e": 4266, "206e65696768": 4267, "2074656c65": 4268, "2032303136": 4269, "6163697479": 4270, "206d616e616765": 4271, "206d616e6e6572": 4272, "204368616d70696f6e73686970": 4273, "20737072656164": 4274, "205265616c": 4275, "20736572766564": 4276, "70656374697665": 4277, "2077696e6e6572": 4278, "20646576656c6f706564": 4279, "2073757266616365": 4280, "20656469746f72": 4281, "20706f73746564": 4282, "203930": 4283, "206f70706f73": 4284, "207363686f6f6c73": 4285, "20636f6e74696e756573": 4286, "206272616e64": 4287, "20636f7272656374": 4288, "2070617469656e74": 4289, "2049737261656c": 4290, "6973636f": 4291, "20666163696c697479": 4292, "2063697263": 4293, "2074656d706572": 4294, "20636f6e6e656374": 4295, "206372656174696e67": 4296, "20436f72706f726174696f6e": 4297, "20766f6c756e7465": 4298, "2065636f6e6f6d79": 4299, "2061646170746572": 4300, "20616e616c79736973": 4301, "6c65766973696f6e": 4302, "206c61756e6368": 4303, "20696e6e6f76": 4304, "20617070726f707269617465": 4305, "204b6172656e696e61": 4306, "3034": 4307, "3239": 4308, "4672": 4309, "4f44": 4310, "524c": 4311, "556e": 4312, "6b6f": 4313, "6b656e": 4314, "6d656e": 4315, "706964": 4316, "2074697073": 4317, "206168656164": 4318, "6973686573": 4319, "2070617468": 4320, "2070757368": 4321, "616e6f": 4322, "206d6178": 4323, "206475616c": 4324, "206461696c79": 4325, "6f6d616c": 4326, "20676f6e65": 4327, "20676976696e67": 4328, "2053697465": 4329, "20534654": 4330, "616469756d": 4331, "20756e64": 4332, "2073746f636b": 4333, "204d61696e": 4334, "204d617373": 4335, "20426f6f6b": 4336, "205075626c6963": 4337, "2050726976": 4338, "2057696c": 4339, "2048656c": 4340, "20486f6d65": 4341, "70706f7274": 4342, "204e6574776f726b": 4343, "2072756c6573": 4344, "20706c616e73": 4345, "74657874": 4346, "6f636f6c": 4347, "20554b": 4348, "6665726564": 4349, "20636c6f74": 4350, "2061646a757374": 4351, "706c616365": 4352, "20736f696c": 4353, "207363656e": 4354, "20776f756c646e": 4355, "207370656564": 4356, "756c6c6976616e": 4357, "70686f6e65": 4358, "2070726f6475636564": 4359, "2057686f": 4360, "20426c6f67": 4361, "206d696e6f72": 4362, "20736d617274": 4363, "6f6c6f67696573": 4364, "206f6276696f7573": 4365, "2074686f7567687473": 4366, "2073746174656d656e74": 4367, "206c6f7473": 4368, "20706572666f726d6564": 4369, "20746563686e6963616c": 4370, "20666f6f6473": 4371, "20707572706f7365": 4372, "20616476696365": 4373, "206469726563746f72": 4374, "20676c617373": 4375, "206576656e7475616c6c79": 4376, "20636f6e737472756374696f6e": 4377, "20706965636573": 4378, "2064656d6f6e": 4379, "20657363": 4380, "2064657465726d696e65": 4381, "206f70706f7274756e6974696573": 4382, "20636175736564": 4383, "207479706573": 4384, "206c6963656e73": 4385, "2047656f726765": 4386, "20776f6e64657266756c": 4387, "204f62616d61": 4388, "204368696361676f": 4389, "3335": 4390, "5041": 4391, "5465": 4392, "676976696e67": 4393, "6c617374": 4394, "7264": 4395, "7375": 4396, "736574": 4397, "20746572": 4398, "6f6e656e7473": 4399, "2073656e696f72": 4400, "617469626c65": 4401, "61746963616c6c79": 4402, "6974746572": 4403, "20666966": 4404, "696369616e": 4405, "6173757265": 4406, "6f6d61": 4407, "6f6d696e67": 4408, "2074686f7573": 4409, "207265666572656e6365": 4410, "204953": 4411, "2054696d": 4412, "69646572696e67": 4413, "206f6e746f": 4414, "616d696c79": 4415, "757264": 4416, "61646564": 4417, "2042616e6b": 4418, "207768617465766572": 4419, "2044697374": 4420, "2046726565": 4421, "204c616e64": 4422, "2072696368": 4423, "2073756974": 4424, "616e74617379": 4425, "204f766572": 4426, "6f73746f6e": 4427, "65617273": 4428, "2077696c6c696e67": 4429, "20646f6773": 4430, "20636f6d706f73": 4431, "6f6372": 4432, "2074656c65766973696f6e": 4433, "2032303137": 4434, "6f67726170": 4435, "20496e76657374": 4436, "205468757273646179": 4437, "20696d6167": 4438, "203332": 4439, "6f6e646f6e": 4440, "20696e646570656e64656e74": 4441, "77656c6c": 4442, "20666c6167": 4443, "6177617265": 4444, "207465616d6d": 4445, "20416e6e61": 4446, "2067616d65706c6179": 4447, "2053656374696f6e": 4448, "7072696e74": 4449, "207265717569726573": 4450, "2061636164656d6963": 4451, "20646576656c6f70696e67": 4452, "206c65616473": 4453, "207369676e6564": 4454, "63657074696f6e": 4455, "20706c616e6e696e67": 4456, "2065766964656e6365": 4457, "206d6f76696573": 4458, "2072656e74616c73": 4459, "20696e636f6d65": 4460, "20616c6c6f776564": 4461, "20506c616e": 4462, "2072657475726e73": 4463, "706f72617465": 4464, "72617079": 4465, "2074656d706c": 4466, "2070657263656e74616765": 4467, "204d65646963": 4468, "20436f6c6c656765": 4469, "2053746570": 4470, "766572746973696e67": 4471, "206d6174657269616c73": 4472, "20726571756972656d656e7473": 4473, "206f626a65637473": 4474, "2065796573": 4475, "206a6f696e": 4476, "20746f6f6c73": 4477, "206769726c": 4478, "6573746572646179": 4479, "20646f6d696e": 4480, "20414e44": 4481, "2043616e616461": 4482, "2072656c6967696f7573": 4483, "206578657263697365": 4484, "20696e67": 4485, "3fe2809d": 4486, "4543": 4487, "4f4c": 4488, "4f56": 4489, "546f646179": 4490, "6060": 4491, "696f73": 4492, "6f76657279": 4493, "79616e": 4494, "2074756e": 4495, "696e6374": 4496, "617475726573": 4497, "20636f6c64": 4498, "206361746368": 4499, "6f72746572": 4500, "6f72616765": 4501, "2072656172": 4502, "205355": 4503, "20536c": 4504, "204372": 4505, "2043616d": 4506, "20636f6e76657273": 4507, "20636f6e666572656e6365": 4508, "756e6e696e67": 4509, "65776f726b": 4510, "20476f6c66": 4511, "697374696373": 4512, "204e59": 4513, "207673": 4514, "207261746573": 4515, "717565": 4516, "756d6e": 4517, "7465726564": 4518, "20556b7261": 4519, "696e646572": 4520, "206f757273656c766573": 4521, "61696c73": 4522, "20566f6c": 4523, "20706172746e6572": 4524, "61766f7572": 4525, "616d70696f6e": 4526, "206163636f6d": 4527, "20626c7565": 4528, "616e67696e67": 4529, "20526563": 4530, "20526576696577": 4531, "206576656e696e67": 4532, "20737570706c": 4533, "68656e73": 4534, "207472616e73666572": 4535, "2077696e73": 4536, "20536f78": 4537, "2072756e73": 4538, "2065646974696f6e": 4539, "20706f737473": 4540, "207365636f6e6473": 4541, "204672616e63": 4542, "204f6e6c696e65": 4543, "206c656773": 4544, "726f6e6963": 4545, "20736b696c6c73": 4546, "2067726f77696e67": 4547, "206d656e75": 4548, "206c616e646d61726b": 4549, "2064656d616e64": 4550, "204361726f6c": 4551, "2062656e65666974": 4552, "2053797374656d": 4553, "20636f6d62696e6174696f6e": 4554, "20536572766572": 4555, "20636175736573": 4556, "206d6574686f6473": 4557, "20636f6d6d756e69636174696f6e": 4558, "206d6f746f72": 4559, "20646f75626c65": 4560, "2070696374757265": 4561, "2065786163746c79": 4562, "206572": 4563, "3035": 4564, "3434": 4565, "3936": 4566, "4554": 4567, "646564": 4568, "6e6f6f6e": 4569, "736973": 4570, "756374": 4571, "756b65": 4572, "77696465": 4573, "776f7264": 4574, "78696d6174656c79": 4575, "2073616d": 4576, "2063726f77": 4577, "6974746565": 4578, "65736f6d65": 4579, "20626174746572": 4580, "20746f77617264": 4581, "206d697374": 4582, "206d616c65": 4583, "656e7469616c6c79": 4584, "20726561736f6e73": 4585, "2067616d": 4586, "205479": 4587, "20546f7572": 4588, "205356": 4589, "2053656e": 4590, "2053616e64": 4591, "2053756d": 4592, "6f746f": 4593, "204154": 4594, "20437261": 4595, "7572696573": 4596, "73656d62": 4597, "6b6565": 4598, "2052414d": 4599, "20486f74": 4600, "757368696e67": 4601, "6170657273": 4602, "206b696c6c": 4603, "206f6666656e73697665": 4604, "206f7468657277697365": 4605, "6e656c6c": 4606, "207477696365": 4607, "20636f766572616765": 4608, "2064657370697465": 4609, "207261696e": 4610, "2050726f6a656374": 4611, "20617373657373": 4612, "20656e646564": 4613, "2063616c6c73": 4614, "20706f6c6963696573": 4615, "206672616d65": 4616, "204672616e6b": 4617, "20416d65726963616e73": 4618, "2067656e6572616c6c79": 4619, "206f7065726174696f6e73": 4620, "206c617267657374": 4621, "2043687269737469616e": 4622, "20736f6c6964": 4623, "206964656e74696669636174696f6e": 4624, "20696e6475737472696573": 4625, "20686973746f72": 4626, "206372656174697665": 4627, "454e54": 4628, "2063616d707573": 4629, "206661696c757265": 4630, "20747275636b": 4631, "20637269746963616c": 4632, "20536d697468": 4633, "207365706172617465": 4634, "2074726970": 4635, "206c6963656e7365": 4636, "2070726564696374": 4637, "206469676974616c": 4638, "207072696d617279": 4639, "20636974697a": 4640, "20766964656f73": 4641, "2063656c656272": 4642, "20646972656374696f6e": 4643, "204561676c6573": 4644, "657465726d696e6564": 4645, "206163636f6d706c": 4646, "3231": 4647, "3435": 4648, "4e41": 4649, "5350": 4650, "666974": 4651, "676d656e74": 4652, "69657273": 4653, "6970706564": 4654, "747261": 4655, "756365": 4656, "65726f": 4657, "20736f6d": 4658, "2073657373696f6e": 4659, "20736e6f77": 4660, "20636f70": 4661, "656e6f7573": 4662, "20666174": 4663, "20666174686572": 4664, "2066617368696f6e": 4665, "6f7567": 4666, "20696e666f726d": 4667, "20696e707574": 4668, "61726e696e67": 4669, "206c6f": 4670, "73746f6e": 4671, "2072657065": 4672, "207265666572": 4673, "726f6c": 4674, "2067617264": 4675, "20546f646179": 4676, "63746f7273": 4677, "205352": 4678, "2053696e67": 4679, "2053756c6c6976616e": 4680, "20626567": 4681, "207965": 4682, "20416c6578": 4683, "616d6d": 4684, "20666f72676574": 4685, "757266": 4686, "696d73": 4687, "204d697373": 4688, "20617370656374": 4689, "206861626974": 4690, "202822": 4691, "20447261": 4692, "2052656c": 4693, "20526f636b": 4694, "205269766572": 4695, "20466f6f64": 4696, "72697074": 4697, "756c617465": 4698, "7573686564": 4699, "2045636f6e6f6d": 4700, "204c696272617279": 4701, "204c6f6e646f6e": 4702, "2076656e": 4703, "2073686f7070696e67": 4704, "206e6f7465": 4705, "206e6f746573": 4706, "20646f6c6c": 4707, "20736f6674": 4708, "20496e666f726d6174696f6e": 4709, "647563": 4710, "20636f6e74657374": 4711, "20756e6974": 4712, "206170706172656e74": 4713, "656e73696f6e": 4714, "207468616e6b": 4715, "20617272616e6765": 4716, "6f626279": 4717, "6f766573": 4718, "20636f76657273": 4719, "203438": 4720, "207261706964": 4721, "20636f6e73756c74": 4722, "207265706f727473": 4723, "206775696465": 4724, "2072656d6f7465": 4725, "205465616d": 4726, "2073686f776564": 4727, "2063686172676573": 4728, "20706c616e6e6564": 4729, "20496e646961": 4730, "20436f6e666572656e6365": 4731, "205265706f7274": 4732, "616e6e656c": 4733, "20657374696d": 4734, "2070726f6d6f74": 4735, "204d65646963616c": 4736, "2077616974696e67": 4737, "206d696c6573": 4738, "2064657465726d696e6174696f6e": 4739, "666f7274756e": 4740, "207365656d6564": 4741, "2067696674": 4742, "20696e697469": 4743, "204170706c65": 4744, "696e6f6973": 4745, "20666967757265": 4746, "2053657276696365": 4747, "206e6f726d616c": 4748, "20736174697366": 4749, "206b69746368656e": 4750, "41626f7574": 4751, "20457468696f70": 4752, "636f686f6c": 4753, "2064656d6f6e737472": 4754, "293a": 4755, "3437": 4756, "4146": 4757, "4545": 4758, "454d": 4759, "456e": 4760, "4e65": 4761, "5941": 4762, "616374696f6e73": 4763, "6561726564": 4764, "69616e6365": 4765, "696f7273": 4766, "6c6179": 4767, "6c6973686564": 4768, "6d6d": 4769, "6f6c79": 4770, "6f70706564": 4771, "737065": 4772, "746f72": 4773, "7963": 4774, "726568656e73": 4775, "2073616d706c65": 4776, "20626174746c65": 4777, "20666c79": 4778, "206d6964646c65": 4779, "617272": 4780, "737465": 4781, "20547265": 4782, "20546f6d": 4783, "65746963": 4784, "20537175": 4785, "204176": 4786, "6967656e6f7573": 4787, "6368616e64": 4788, "2073746174696f6e": 4789, "2042657374": 4790, "204261636b": 4791, "205043": 4792, "205072657373": 4793, "2068656174": 4794, "20576f7264": 4795, "6f6f70": 4796, "206172656e": 4797, "7269616765": 4798, "20474d": 4799, "204c4544": 4800, "2076756c": 4801, "6f75746865726e": 4802, "6f646573": 4803, "20636f6d706172": 4804, "69706573": 4805, "20636c6f7564": 4806, "2056696374": 4807, "6963616c73": 4808, "2073706f6e73": 4809, "207472757374": 4810, "207072656d": 4811, "20737570706c79": 4812, "20617474726962": 4813, "206d696e757465": 4814, "206361706163697479": 4815, "207265616c697479": 4816, "2076697375616c": 4817, "2073747261746567": 4818, "20696e63726561736573": 4819, "206d6f76696e67": 4820, "206f70657261746f72": 4821, "20636f6e74726f6c6c": 4822, "206f6c646572": 4823, "2031393936": 4824, "207061696e74": 4825, "20736f6c7574696f6e": 4826, "2072656475636564": 4827, "206163636f756e7473": 4828, "206c696d6974": 4829, "207461786573": 4830, "20656e7669726f6e6d656e74616c": 4831, "2061646170746564": 4832, "20656c656374726963": 4833, "20696e697469616c": 4834, "206368616c6c656e6765": 4835, "207265706c616365": 4836, "2052657075626c6963616e73": 4837, "2056616c6c6579": 4838, "2073757370656374": 4839, "206162736f6c757465": 4840, "2041636164656d": 4841, "20657870657269656e636573": 4842, "206166666f7264": 4843, "2066616d696c696573": 4844, "2072657374617572616e74": 4845, "20496c6c696e6f6973": 4846, "2061727269766564": 4847, "626f75726e65": 4848, "4163636f7264696e67": 4849, "20535647": 4850, "416d": 4851, "4472": 4852, "4950": 4853, "5072": 4854, "5554": 4855, "62616e64": 4856, "6372616674": 4857, "686162": 4858, "6b6573": 4859, "6b6e6f776e": 4860, "6c696e6573": 4861, "726f6e74": 4862, "726572": 4863, "2077657374": 4864, "2063617274": 4865, "20636976696c": 4866, "6974756465": 4867, "6973686572": 4868, "20667261": 4869, "206661726d": 4870, "616c696e67": 4871, "206d616368": 4872, "61727279": 4873, "20686f73706974616c": 4874, "206c696272617279": 4875, "206e7574": 4876, "206e6f7665": 4877, "204949": 4878, "2067616c6c": 4879, "20547269": 4880, "2054656e6e6573736565": 4881, "207961726473": 4882, "20796573746572646179": 4883, "204343": 4884, "20436f7374": 4885, "20437570": 4886, "20436f757274": 4887, "2073747570": 4888, "20426f73746f6e": 4889, "204456": 4890, "204469": 4891, "2044697363": 4892, "20636f6d6d65726369616c": 4893, "20526f79": 4894, "204665": 4895, "204672656e6368": 4896, "2073656174": 4897, "2073657175": 4898, "6f726573": 4899, "697374616e": 4900, "2076697274": 4901, "2073757374": 4902, "206c65756b": 4903, "204a6f6e": 4904, "20557365": 4905, "20736176": 4906, "204b6579": 4907, "2054686f6d": 4908, "64756c65": 4909, "206f66666572696e67": 4910, "20566964656f": 4911, "20756e697473": 4912, "206265636f6d696e67": 4913, "206163636f6d6d": 4914, "206d6f73746c79": 4915, "20636f6d6d756e6974696573": 4916, "203634": 4917, "2070726f64756365": 4918, "2061667465726e6f6f6e": 4919, "20736565696e67": 4920, "2050726f6772616d": 4921, "2061747472616374": 4922, "206775617264": 4923, "206d6f64656c73": 4924, "2063726577": 4925, "20657870616e73": 4926, "206d61726b6574696e67": 4927, "20636f6e74696e756564": 4928, "205468657265666f7265": 4929, "20616476616e636564": 4930, "20736d616c6c6572": 4931, "20706173736564": 4932, "706f72617279": 4933, "20736f6c7574696f6e73": 4934, "20706172616c6c65": 4935, "20696e64696361746573": 4936, "205472616e73": 4937, "20656d706c6f79656573": 4938, "206d65617375726573": 4939, "7768696368": 4940, "20686f74656c": 4941, "2064656772656573": 4942, "206672657175": 4943, "207377656574": 4944, "20617765736f6d65": 4945, "204a656666": 4946, "206269726473": 4947, "206d616e7566616374757265": 4948, "2064727567": 4949, "20646564696361746564": 4950, "20636974697a656e73": 4951, "206c65756b6f6379": 4952, "206163636f6d6d6f64": 4953, "3331": 4954, "3336": 4955, "416d65726963": 4956, "494d": 4957, "4f74686572": 4958, "506c65617365": 4959, "5370": 4960, "5570": 4961, "56696577": 4962, "6176656e": 4963, "62757267": 4964, "636170": 4965, "6567": 4966, "696172": 4967, "6f69636573": 4968, "726f72": 4969, "746963": 4970, "756174696f6e73": 4971, "766973": 4972, "796c": 4973, "696e616c73": 4974, "72656d": 4975, "20746865736973": 4976, "65727279": 4977, "20736f7572636573": 4978, "6f727279": 4979, "6f72726f77": 4980, "206269727468": 4981, "20666f6c64": 4982, "206e6574": 4983, "206e696e65": 4984, "20494949": 4985, "206761696e": 4986, "204344": 4987, "6f77696e67": 4988, "6967616e": 4989, "2073747265": 4990, "2073746f72616765": 4991, "204d6f": 4992, "696c73": 4993, "696c696e67": 4994, "20426173": 4995, "20426574": 4996, "2042696c6c": 4997, "2057696c64": 4998, "2070726f73": 4999, "20446f776e": 5000, "20526164": 5001, "2052656d": 5002, "20526967687473": 5003, "20466f7265": 5004, "20736561": 5005, "72696572": 5006, "756c6564": 5007, "696768746572": 5008, "204e6f76": 5009, "20456c656374": 5010, "204c696665": 5011, "20766f7465": 5012, "2072697365": 5013, "2073686f70": 5014, "2073686172696e67": 5015, "756d6573": 5016, "206c6561766573": 5017, "204a6170616e": 5018, "6f64696573": 5019, "206f757464": 5020, "20636c616e73": 5021, "636c6572": 5022, "636c6573": 5023, "203336": 5024, "6f7264696e": 5025, "207363656e65": 5026, "20737069726974": 5027, "2064657369726564": 5028, "2072617265": 5029, "20636f6e7369646572696e67": 5030, "2032303031": 5031, "20656d6f74": 5032, "20636f6c6c65": 5033, "20656e7465726564": 5034, "207472616e73706f7274": 5035, "2068696768776179": 5036, "2070726573656e6365": 5037, "206561726e": 5038, "617a7a": 5039, "20617274697374": 5040, "2063656e747265": 5041, "62797373": 5042, "20666f726d6174": 5043, "20636c6173736963": 5044, "206372696d65": 5045, "2073706563696573": 5046, "204f6e6365": 5047, "20696e63726564": 5048, "4f5245": 5049, "67696e6961": 5050, "2062726f74686572": 5051, "20436f6d6d6974746565": 5052, "206368616e67696e67": 5053, "2074657374696e67": 5054, "20666f726569676e": 5055, "6f70797269676874": 5056, "20456e746572": 5057, "2064657465726d696e6564": 5058, "20436865636b": 5059, "206c6561726e6564": 5060, "2041626f7574": 5061, "206c6f676f": 5062, "2046696e616e6369616c": 5063, "20737175617265": 5064, "20636f6f6b696e67": 5065, "206769726c73": 5066, "2070726564657465726d696e6564": 5067, "20666169726c79": 5068, "205365727669636573": 5069, "206465706172746d656e74": 5070, "2044656c6177617265": 5071, "2072656c61746976656c79": 5072, "206368616c6c656e676573": 5073, "20446576656c6f706d656e74": 5074, "2062726f77736572": 5075, "206669667468": 5076, "2041636164656d79": 5077, "416e79": 5078, "436f6d": 5079, "446573": 5080, "57656c6c": 5081, "596573": 5082, "63617265": 5083, "6961626c65": 5084, "72617465": 5085, "7269636b": 5086, "7779": 5087, "7761746572": 5088, "20746175676874": 5089, "696e6174696f6e73": 5090, "2073616e64": 5091, "2073706c": 5092, "61746162": 5093, "20666173746572": 5094, "206d696e65": 5095, "206d6f757468": 5096, "20696e76656e74": 5097, "2064696574": 5098, "6963696e67": 5099, "206e6f727468": 5100, "20496d70": 5101, "2067726f7373": 5102, "206772616e64": 5103, "2054726962": 5104, "20546f75726e616d656e74": 5105, "2053696c": 5106, "20537072": 5107, "616d65776f726b": 5108, "204d6f6e74": 5109, "204272616e64": 5110, "205053": 5111, "2050616c": 5112, "20506172": 5113, "205072616374": 5114, "2077656c": 5115, "6b656c": 5116, "2057696e67": 5117, "2057696e64": 5118, "2044656e": 5119, "20446f67": 5120, "20636f6e76656e": 5121, "20486177": 5122, "206465637265": 5123, "2045647563": 5124, "20616c7465726e6174697665": 5125, "206c656176696e67": 5126, "206c6561726e696e67": 5127, "204a6f": 5128, "204a6179": 5129, "204a6f7365": 5130, "206d656174": 5131, "206b69636b": 5132, "61636564": 5133, "205374616e64": 5134, "72756374757265": 5135, "20756e66": 5136, "20617272657374": 5137, "2061726d79": 5138, "20666c6f77657273": 5139, "20636f6c6f7273": 5140, "20416e67": 5141, "2068656c70696e67": 5142, "20736563757265": 5143, "2072656d61696e73": 5144, "2073756273": 5145, "20657870657274": 5146, "20416c74686f756768": 5147, "206c697374656e": 5148, "2061766f6964": 5149, "20313530": 5150, "2066756e6374696f6e73": 5151, "206576616c": 5152, "20496e64757374": 5153, "455354": 5154, "207374616e6461726473": 5155, "696b69": 5156, "20696e63686573": 5157, "207475726e73": 5158, "616e656f7573": 5159, "20555341": 5160, "756e69636174696f6e": 5161, "2077696e646f7773": 5162, "20737472756767": 5163, "4154494f4e": 5164, "206361707475726564": 5165, "20696c6c75737472": 5166, "2052657075626c6963616e": 5167, "206d65726368616e64": 5168, "72696566": 5169, "20766f746573": 5170, "20757064617465": 5171, "20656666696369656e6379": 5172, "206578697374696e67": 5173, "204765726d616e79": 5174, "2043616d706169676e": 5175, "204561727468": 5176, "20646f756274": 5177, "207375627374616e74": 5178, "20657870616e73696f6e": 5179, "203e": 5180, "20696c": 5181, "2a2a": 5182, "3436": 5183, "3930": 5184, "4348": 5185, "4576657279": 5186, "46726f6d": 5187, "487a": 5188, "4f68": 5189, "5346": 5190, "69616e74": 5191, "6c61": 5192, "6c657273": 5193, "706d": 5194, "70617373": 5195, "7c2d": 5196, "82ac": 5197, "20747562": 5198, "2074757262": 5199, "20736164": 5200, "6f726e6579": 5201, "69736c": 5202, "2062616e": 5203, "20666162": 5204, "2066656d": 5205, "20706974": 5206, "2070616972": 5207, "206d617073": 5208, "206469766973696f6e": 5209, "206461756768746572": 5210, "20746869636b": 5211, "6c6c697465": 5212, "206c6f73": 5213, "206c6170": 5214, "73747261": 5215, "205354": 5216, "616d6963": 5217, "616d696c": 5218, "2043617265": 5219, "63686172": 5220, "20737472657373": 5221, "6f6c6b": 5222, "204d656e": 5223, "696c6974": 5224, "20323330": 5225, "2044616e": 5226, "6174656c6c697465": 5227, "2073656d": 5228, "636b6e6f77": 5229, "72697a": 5230, "756c61": 5231, "756c61746564": 5232, "204c6f73": 5233, "206578636c7573": 5234, "2073756666": 5235, "207375676172": 5236, "204f66666963": 5237, "20616c636f686f6c": 5238, "20706c6173746963": 5239, "206c656d6f6e": 5240, "7465656e": 5241, "20636f6d70617469626c65": 5242, "6167656e": 5243, "20554e": 5244, "206b6964": 5245, "20636c696d617465": 5246, "61636573": 5247, "e2809d2c": 5248, "204b696d": 5249, "206d616e61676564": 5250, "756c7479": 5251, "20736369656e6365": 5252, "2070617274696573": 5253, "6f76696e67": 5254, "20696e646967656e6f7573": 5255, "20616464696e67": 5256, "2074726166666963": 5257, "636f6d6d": 5258, "2073657474696e67": 5259, "2073747564696573": 5260, "20646563696465": 5261, "20637265616d": 5262, "2061727469636c6573": 5263, "206c6973746564": 5264, "207265616c697a65": 5265, "20766973696f6e": 5266, "2068617070656e73": 5267, "20636f7572736573": 5268, "2064697374616e6365": 5269, "20616476616e6365": 5270, "206950": 5271, "6f6b6573": 5272, "206275696c64696e6773": 5273, "20636f6e666967": 5274, "20696e64696361746564": 5275, "20446f6573": 5276, "206d61727269616765": 5277, "206578706563746564": 5278, "206164617074": 5279, "20536572696573": 5280, "2063617074757265": 5281, "676f696e67": 5282, "2068756e74696e67": 5283, "2063616c63756c": 5284, "2073656e736974697665": 5285, "206566666f727473": 5286, "206672656564": 5287, "20656e67696e656572696e67": 5288, "2073686f6f74696e67": 5289, "20646f63756d656e7473": 5290, "2061756469656e6365": 5291, "20686f6c69646179": 5292, "2062616c616e6365": 5293, "2072616e6b6564": 5294, "2056697267696e6961": 5295, "207469636b657473": 5296, "20496e73746974757465": 5297, "2047656e6572616c": 5298, "204d656c626f75726e65": 5299, "20736369656e7469666963": 5300, "206d6178696d": 5301, "2074656d706c617465": 5302, "203d": 5303, "3036": 5304, "4147": 5305, "417070": 5306, "4344": 5307, "4c45": 5308, "61776e": 5309, "686f6f64": 5310, "686f7273": 5311, "6b6572": 5312, "6b696e67": 5313, "6d6172": 5314, "6f6f7468": 5315, "74757265": 5316, "7a656e": 5317, "20746f6e73": 5318, "2061696d": 5319, "2077696e65": 5320, "6e646f6d": 5321, "20637279": 5322, "20636f7665726564": 5323, "20626f726e": 5324, "2070756d70": 5325, "61726f": 5326, "6c656172": 5327, "6c657473": 5328, "20656767": 5329, "20537562": 5330, "20436f6c6c": 5331, "20737472656574": 5332, "204d656d": 5333, "696c6564": 5334, "6f6f6579": 5335, "204461726b": 5336, "2044534c": 5337, "2046697665": 5338, "20464f52": 5339, "2048696c6c": 5340, "2048756e": 5341, "726f6d65": 5342, "204e4f": 5343, "204e696365": 5344, "204570": 5345, "20766972": 5346, "2065786368616e6765": 5347, "20736861726564": 5348, "6f7368": 5349, "204f52": 5350, "6f636174696f6e": 5351, "616b6564": 5352, "206b697474": 5353, "207361756365": 5354, "706c6963": 5355, "20496e73": 5356, "647563746564": 5357, "20726563697065": 5358, "20313937": 5359, "203635": 5360, "207261697365": 5361, "20726169736564": 5362, "2072616e646f6d": 5363, "20416e616c": 5364, "20416e6f74686572": 5365, "2073657269616c": 5366, "206d656d6f72": 5367, "2072656164657273": 5368, "6572696e677565": 5369, "696e736f6e": 5370, "206d6f6e69746f72": 5371, "20737570706f727473": 5372, "206772616e74": 5373, "206f7065726174696f6e": 5374, "20667269656e646c79": 5375, "20676c6f62616c": 5376, "20617070726f78696d6174656c79": 5377, "2070726f74656374696f6e": 5378, "204f6e6c79": 5379, "2061736b696e67": 5380, "20696e646963617465": 5381, "204d65646961": 5382, "6976656e657373": 5383, "20666f6375736564": 5384, "20636f6d7065746974697665": 5385, "206272696e67696e67": 5386, "2070726f66657373696f6e616c73": 5387, "2048696768776179": 5388, "207069636b6564": 5389, "206d65616e696e67": 5390, "6464656e": 5391, "207479706963616c6c79": 5392, "207061727469636970616e7473": 5393, "20686f6e657374": 5394, "494453": 5395, "20747261646974696f6e616c": 5396, "20666f6f7462616c6c": 5397, "20506f6c616e64": 5398, "2061677265656d656e74": 5399, "204972616e": 5400, "204972697368": 5401, "20656666696369656e74": 5402, "207065727370656374697665": 5403, "204765726d616e": 5404, "2052696368617264": 5405, "2065737461626c697368": 5406, "2062757379": 5407, "20756c747261": 5408, "207363686564756c65": 5409, "2074686f7573616e6473": 5410, "2063726f7764": 5411, "2076756c6e6572": 5412, "20706172616c6c656c": 5413, "3332": 5414, "446176": 5415, "4973": 5416, "4a756c79": 5417, "4b47": 5418, "6269": 5419, "62757279": 5420, "636f6c": 5421, "6566": 5422, "6761": 5423, "67656e": 5424, "686f77": 5425, "686f7374": 5426, "696174": 5427, "69657374": 5428, "6a65": 5429, "7061636b": 5430, "7072657373": 5431, "706f6e73": 5432, "776f": 5433, "20746f756768": 5434, "2061636b6e6f77": 5435, "65726961": 5436, "206361626c65": 5437, "2063657274": 5438, "6f7267616e": 5439, "6f7274657273": 5440, "656e636573": 5441, "20626f6f": 5442, "20626f6f74": 5443, "2070616c6d": 5444, "206d7572": 5445, "206d656e74616c": 5446, "6172616e74": 5447, "2064616e676572": 5448, "20746872": 5449, "206e6f72": 5450, "2065617374": 5451, "20656c656d656e74": 5452, "204952": 5453, "20546172676574": 5454, "204172697a": 5455, "20666f72636573": 5456, "204348": 5457, "616472": 5458, "6164696e67": 5459, "69676974616c": 5460, "204d756c74": 5461, "2077686f6d": 5462, "20616e63": 5463, "20577269676874": 5464, "20447572696e67": 5465, "20526f626572": 5466, "20526163696e67": 5467, "20636f6e64756374": 5468, "20736577": 5469, "726961": 5470, "756c66": 5471, "207761737465": 5472, "20476f6f64": 5473, "656d6f6e": 5474, "204c6f": 5475, "204c6f75": 5476, "204c6f6e67": 5477, "2076616e": 5478, "2073756464656e": 5479, "204f6c64": 5480, "206e6f74696365": 5481, "616c6c73": 5482, "206368616972": 5483, "204a616d6573": 5484, "69766972": 5485, "5468657365": 5486, "206a756e": 5487, "20556c74": 5488, "66656374696f6e": 5489, "20636c6f636b": 5490, "69636b656e": 5491, "2053746172": 5492, "7275697473": 5493, "20756e6976657273697479": 5494, "2073636f726564": 5495, "6572766174696f6e": 5496, "203535": 5497, "206465736372697074696f6e": 5498, "20636f6d6d6974746564": 5499, "2068656c7066756c": 5500, "2072656d6f7665": 5501, "206d696e69": 5502, "206465636973696f6e73": 5503, "2066696e6473": 5504, "2066696e64696e67": 5505, "20696e74656e646564": 5506, "20737572766579": 5507, "206361706162696c6974696573": 5508, "2065646765": 5509, "20657870656e73697665": 5510, "2070757474696e67": 5511, "206b6579626f617264": 5512, "20646973636f756e74": 5513, "206665656c73": 5514, "6666696369656e74": 5515, "2070726f70657274696573": 5516, "20436f6d6d756e697479": 5517, "204272756e": 5518, "20c2b7": 5519, "7363617065": 5520, "20636c6561726c79": 5521, "20636f6d62696e6564": 5522, "2046696e616e6365": 5523, "206d6973736564": 5524, "20617373697374616e74": 5525, "20696e6a757279": 5526, "20656c656d656e7473": 5527, "7261737472756374757265": 5528, "2065786869626974696f6e": 5529, "666f7263656d656e74": 5530, "206f63637572726564": 5531, "2070757a7a": 5532, "2072656769737465726564": 5533, "20656e7465727461696e6d656e74": 5534, "2076656869636c65": 5535, "2063687269737469616e": 5536, "2065787472656d656c79": 5537, "206f70696e": 5538, "2044656d6f6372": 5539, "6f636f6c617465": 5540, "204361726f6c696e61": 5541, "20737475706964": 5542, "20456475636174696f6e": 5543, "20696c6c6567": 5544, "2129": 5545, "4159": 5546, "4253": 5547, "4c6574": 5548, "4e59": 5549, "50617274": 5550, "52656c": 5551, "67656e6379": 5552, "697070": 5553, "6d6573": 5554, "6d6f7370": 5555, "6f6f7273": 5556, "706f6e64": 5557, "726f7574": 5558, "77696e": 5559, "79617264": 5560, "7265656e73": 5561, "61746865": 5562, "6174696e": 5563, "20776964": 5564, "2077616c6e7574": 5565, "20636175676874": 5566, "20636f756e746572": 5567, "20626f756e64": 5568, "2062756c6c": 5569, "2066697368": 5570, "2070756e": 5571, "20707379": 5572, "206d656c": 5573, "2064696e6e6572": 5574, "6963696f7573": 5575, "20686f6d6573": 5576, "206c6164": 5577, "206c69626572": 5578, "2072657461696e": 5579, "2067726f776e": 5580, "75746f72": 5581, "6f746f72": 5582, "20416e74": 5583, "616d69766972": 5584, "75726174696f6e": 5585, "204d696c": 5586, "204d616e79": 5587, "204d6963726f": 5588, "20427269616e": 5589, "205061696e": 5590, "20617373656d62": 5591, "20576f6d656e": 5592, "205245": 5593, "20526f6f6d": 5594, "205279616e": 5595, "20636f6e766572": 5596, "20636f6e647563746564": 5597, "2048617264": 5598, "2048617665": 5599, "756c6c6574": 5600, "6f70656e65": 5601, "2045726963": 5602, "20456d70": 5603, "204c696b65": 5604, "71756572": 5605, "61727473": 5606, "6f73656e": 5607, "206e6f746564": 5608, "20706c616e7473": 5609, "206368696566": 5610, "206368616d70696f6e": 5611, "204a6f65": 5612, "20646f6f7273": 5613, "206162696c6974696573": 5614, "20636f6d70726568656e73": 5615, "726f7564": 5616, "206a75": 5617, "20627574746572": 5618, "616b73": 5619, "206f7574707574": 5620, "616374697665": 5621, "204368616c6c": 5622, "2072656379": 5623, "20776572656e": 5624, "207363686564": 5625, "207363616c65": 5626, "636c7564696e67": 5627, "2073796d62": 5628, "77656574": 5629, "2075736566756c": 5630, "7465726e616c": 5631, "20656d697373696f6e73": 5632, "207468696e6b73": 5633, "206c6f636174696f6e73": 5634, "2068616e646c65": 5635, "2053686f77": 5636, "204265616368": 5637, "706c657465": 5638, "576879": 5639, "206c6172676572": 5640, "20706179696e67": 5641, "20696e636f72": 5642, "20666163746f7273": 5643, "2068756d616e73": 5644, "706c6f796d656e74": 5645, "206578706c61696e": 5646, "20456e676c616e64": 5647, "2041746c": 5648, "20726f6f6d73": 5649, "207370656369666963616c6c79": 5650, "32303035": 5651, "61707079": 5652, "20c2a3": 5653, "20756e6465727374616e64696e67": 5654, "20636c65616e696e67": 5655, "206c61756e": 5656, "20536d616c6c": 5657, "2061747461636b73": 5658, "20646566656e64": 5659, "2042656c66617374": 5660, "20647261776572": 5661, "207761746368696e67": 5662, "757262616e": 5663, "20617373697374616e6365": 5664, "2054776f": 5665, "2064656274": 5666, "207072657061726564": 5667, "2065737461626c6973686564": 5668, "69616d69": 5669, "20666565646261636b": 5670, "20546563686e6f6c6f6779": 5671, "20656e636f7572616765": 5672, "2063616e646964617465": 5673, "20737472656e677468": 5674, "206163637572617465": 5675, "20666573746976616c": 5676, "207465616368696e67": 5677, "2068756e6472656473": 5678, "204469737472696374": 5679, "20696e67726564": 5680, "204672616e636973636f": 5681, "666f7274756e6174656c79": 5682, "79636f70656e65": 5683, "20566963746f72": 5684, "206e6f76656c": 5685, "20445644": 5686, "207375737461696e": 5687, "206c65756b6f6379746573": 5688, "2044534c52": 5689, "206972": 5690, "2727": 5691, "3038": 5692, "3337": 5693, "3339": 5694, "333030": 5695, "424f": 5696, "446f": 5697, "4a616e": 5698, "4a757374": 5699, "4d6f7265": 5700, "554d": 5701, "5573": 5702, "616973": 5703, "6166746572": 5704, "626564": 5705, "637565": 5706, "63617365": 5707, "63696f7573": 5708, "6b6179": 5709, "6c6f72": 5710, "6c6967": 5711, "6e6f": 5712, "6e69676874": 5713, "706164": 5714, "726963616c": 5715, "7472": 5716, "77657374": 5717, "776f726473": 5718, "20746162": 5719, "696e7468": 5720, "2073697474696e67": 5721, "69746e657373": 5722, "2062617265": 5723, "20626f75676874": 5724, "2066656172": 5725, "20666f756c": 5726, "2070696c": 5727, "2070726f7564": 5728, "616c69616e": 5729, "206f666665726564": 5730, "206461746573": 5731, "73746f6e65": 5732, "20546f6f6c": 5733, "20536f6c": 5734, "2053656e696f72": 5735, "2053637265656e": 5736, "61796e65": 5737, "2069736c616e64": 5738, "6964657273": 5739, "204143": 5740, "204d696c6c": 5741, "205044": 5742, "2077656170": 5743, "207765616b": 5744, "2077656174686572": 5745, "72616365": 5746, "7465726d": 5747, "696c6c61": 5748, "205772": 5749, "2068616972": 5750, "2061746d6f7370": 5751, "204469766973696f6e": 5752, "2046756c6c": 5753, "20486f73706974616c": 5754, "6573736564": 5755, "2047616c6c": 5756, "204555": 5757, "204c697374": 5758, "204c617374": 5759, "2072616e": 5760, "20736861726573": 5761, "616e746173746963": 5762, "616c6c6564": 5763, "20706c656e7479": 5764, "20636f6d7072": 5765, "6170746572": 5766, "206a6f75726e616c": 5767, "20627574746f6e": 5768, "2055524c": 5769, "206d65616c": 5770, "206e6575726f": 5771, "20636c696d62": 5772, "204b696e67": 5773, "204b617465": 5774, "2064697368": 5775, "2064697370": 5776, "207265736964656e7473": 5777, "7265656b": 5778, "20756e73": 5779, "20756e6c6f636b": 5780, "617661": 5781, "207175616e74": 5782, "72657373696f6e": 5783, "206167656e6379": 5784, "2061726775": 5785, "207368656c6c": 5786, "616e676564": 5787, "20706f636b": 5788, "207072696e636970": 5789, "20726163696e67": 5790, "206576657279646179": 5791, "2061637475616c": 5792, "6372657465": 5793, "20556e696f6e": 5794, "656c6c79": 5795, "20726567696f6e73": 5796, "20436c69636b": 5797, "206465636f72": 5798, "20656e6473": 5799, "207369676e616c": 5800, "206272696e6773": 5801, "455253": 5802, "20707572706f73": 5803, "206f70656e6564": 5804, "69656e636573": 5805, "206d617474657273": 5806, "20536369656e6365": 5807, "20686f706573": 5808, "207a6f6f73": 5809, "2064726976657273": 5810, "206964656e74696679": 5811, "20696e667261737472756374757265": 5812, "2077696e646f77": 5813, "737769636b": 5814, "207369787468": 5815, "20c2bb": 5816, "207472656573": 5817, "2072657669657773": 5818, "454e53": 5819, "2076697369746f7273": 5820, "6c6576616e74": 5821, "206c696e6b73": 5822, "206578636974696e67": 5823, "20636f6e747269627574696f6e": 5824, "20726164696174696f6e": 5825, "20616e7469": 5826, "2076696f6c6174696f6e": 5827, "6f6f73696e67": 5828, "2062726f616463617374": 5829, "2062616773": 5830, "204469726563746f72": 5831, "204d6167617a696e65": 5832, "207665746572696e": 5833, "2061726368697465": 5834, "206d617373697665": 5835, "20686f7573696e67": 5836, "204e4853": 5837, "2065706973": 5838, "2074726f75626c65": 5839, "20726573697374616e6365": 5840, "207461737465": 5841, "656e63696573": 5842, "2074656d7065726174757265": 5843, "20657363617065": 5844, "20556b7261696e65": 5845, "6361706163": 5846, "2066726565646f6d": 5847, "204272756e737769636b": 5848, "20707572706f736573": 5849, "2229": 5850, "3032": 5851, "3835": 5852, "426179": 5853, "436865": 5854, "464c": 5855, "5352": 5856, "5363": 5857, "626f77": 5858, "666f6f74": 5859, "676f6f6579": 5860, "6b61": 5861, "6c6965": 5862, "6d697474696e67": 5863, "6e6f6e": 5864, "6e6965": 5865, "6f6972": 5866, "72696373": 5867, "756e646572": 5868, "20746f6e": 5869, "6f6e6572": 5870, "207369646573": 5871, "20736f756c": 5872, "20736174656c6c697465": 5873, "20776564": 5874, "206272656164": 5875, "20666c65": 5876, "206d616c": 5877, "206d696c6c": 5878, "206d61676e": 5879, "20696e686962": 5880, "20646572": 5881, "69636f6e": 5882, "69636970": 5883, "696369616c": 5884, "61736572": 5885, "2068616e67": 5886, "6f6d696e": 5887, "206c6273": 5888, "206c61626f72": 5889, "737469636b79": 5890, "206e6174696f6e73": 5891, "20657468": 5892, "204942": 5893, "6c796d70": 5894, "20546f74": 5895, "2054616c6b": 5896, "6f746865": 5897, "20666f727468": 5898, "6f776e74": 5899, "75727374": 5900, "63656e64": 5901, "6164656c": 5902, "736561736f6e": 5903, "20737469636b": 5904, "6f6c696e65": 5905, "204d6572": 5906, "204d6f64": 5907, "204d6173746572": 5908, "204d6964646c65": 5909, "204d69616d69": 5910, "696c6572": 5911, "20506f74": 5912, "20576f6f64": 5913, "2070726f74": 5914, "69666572": 5915, "2044617465": 5916, "2046756e64": 5917, "2073656564": 5918, "2073656c6c696e67": 5919, "2064656c6963": 5920, "204772616e64": 5921, "204e6f72": 5922, "20456c6c": 5923, "204c696e6b": 5924, "20726174": 5925, "20726f756768": 5926, "2072756c65": 5927, "656c636f6d65": 5928, "20706c7573": 5929, "6f75726e6579": 5930, "206c6561677565": 5931, "204a696d": 5932, "20776f727365": 5933, "206e656974686572": 5934, "20636c696e": 5935, "20636c69656e7473": 5936, "206164756c7473": 5937, "616e736173": 5938, "6265727279": 5939, "20656e68": 5940, "20636f6e7472617374": 5941, "206469736d": 5942, "75626169": 5943, "207265736f75726365": 5944, "20566973": 5945, "20616e797768657265": 5946, "656e73696f6e73": 5947, "656e73657468": 5948, "207175696574": 5949, "6572766573": 5950, "657276696365": 5951, "6f6273": 5952, "2070726576": 5953, "203435": 5954, "207368656570": 5955, "637265616d79": 5956, "20737461727473": 5957, "20536565": 5958, "2072656d6f766564": 5959, "20636172626f6e": 5960, "2064656361646573": 5961, "206561726e6564": 5962, "206e756d6572": 5963, "207375727072697365": 5964, "20746f706963": 5965, "20746563686e6f6c6f67696573": 5966, "20706f737369626c79": 5967, "20636f726e6572": 5968, "20736974756174696f6e73": 5969, "2053636f7474": 5970, "2076616c756573": 5971, "6c656769617465": 5972, "32303133": 5973, "20696e647573747269616c": 5974, "204f7267616e": 5975, "63686573746572": 5976, "6368657779": 5977, "206578706c6f7265": 5978, "2072657365617263": 5979, "7265616d696e67": 5980, "2043656e7472616c": 5981, "75626c6973686564": 5982, "207472656e64": 5983, "20696d70726f766564": 5984, "20656e6a6f796564": 5985, "205374657665": 5986, "206578706563746174696f6e73": 5987, "20747261636b73": 5988, "20686f6c64696e67": 5989, "20747275636b73": 5990, "205072696365": 5991, "20696c6c6e657373": 5992, "737469747574696f6e": 5993, "206578616d706c6573": 5994, "7768696c65": 5995, "20686f6e6f72": 5996, "207265636f6d6d656e646564": 5997, "207265636f676e6974696f6e": 5998, "2064656c6976657279": 5999, "207061726b696e67": 6000, "20446973706c6179": 6001, "206e65676174697665": 6002, "206175746f6d61746963616c6c79": 6003, "20416e67656c6573": 6004, "20436c6173736963": 6005, "2061646d696e697374726174696f6e": 6006, "62726f6f6b": 6007, "206d65646963696e65": 6008, "206469736170706f696e74": 6009, "20466f756e646174696f6e": 6010, "20496e7374656164": 6011, "2061707072656369617465": 6012, "20696e6e6f766174697665": 6013, "20736f6d6577": 6014, "20636f70696573": 6015, "61746162617365": 6016, "206d65726368616e64697365": 6017, "676f6f6579637265616d79": 6018, "737469636b79676f6f6579637265616d79": 6019, "737469636b79676f6f6579637265616d796368657779": 6020, "2529": 6021, "293b": 6022, "3935": 6023, "417567": 6024, "494c": 6025, "4a756e65": 6026, "4f7574": 6027, "504c": 6028, "5065": 6029, "526573": 6030, "537465": 6031, "5757": 6032, "696a": 6033, "6b69": 6034, "6e616d": 6035, "7269646765": 6036, "73616c65": 6037, "20616374696f6e73": 6038, "206f6464": 6039, "20636173": 6040, "20626f6e65": 6041, "2062617468": 6042, "2070616c": 6043, "20706574": 6044, "20746f6d6174": 6045, "206d61726368": 6046, "206d697373696f6e": 6047, "6172696f": 6048, "206861726d": 6049, "207265696e": 6050, "726f6964": 6051, "204950": 6052, "e280a2": 6053, "2054657374": 6054, "20547562": 6055, "20546f62": 6056, "65747473": 6057, "204177617264": 6058, "75726b6579": 6059, "7665727479": 6060, "204d6f6e6579": 6061, "2042657468": 6062, "204265726e": 6063, "2068656d": 6064, "2052616e64": 6065, "2052757373": 6066, "204672696564": 6067, "2046616d696c79": 6068, "20736576656e74": 6069, "2048696d": 6070, "206465616c73": 6071, "757369": 6072, "757365747473": 6073, "204573": 6074, "20454553": 6075, "204c6f77": 6076, "20726f757465": 6077, "2073686f7473": 6078, "616e746963": 6079, "6561726e": 6080, "204a6577": 6081, "204a7564": 6082, "204a656e6e": 6083, "206a6577": 6084, "206a6f75726e6579": 6085, "207361766564": 6086, "20636c69656e74": 6087, "20594f55": 6088, "203335": 6089, "207265736572766564": 6090, "616368757365747473": 6091, "61756572": 6092, "20736372697074": 6093, "6974696f6e616c6c79": 6094, "207468656d65": 6095, "20343030": 6096, "20706f7665727479": 6097, "207261636573": 6098, "70686961": 6099, "2074726170706572": 6100, "696374696f6e": 6101, "2073657276696e67": 6102, "2050726f7465": 6103, "726974696e67": 6104, "20696e73746974": 6105, "2073657276657273": 6106, "70656e7365": 6107, "2065787065727473": 6108, "20627269676874": 6109, "206465666963": 6110, "2041726d79": 6111, "2070726f66696c65": 6112, "203039": 6113, "20706f7373657373696f6e": 6114, "205265736f7274": 6115, "206372617368": 6116, "2070617373696e67": 6117, "20676c6164": 6118, "20616c6c6f77696e67": 6119, "2070726f7065726c79": 6120, "206669656c6473": 6121, "20666163696c6974696573": 6122, "204d61796f72": 6123, "207a6f6f": 6124, "2074616c6b73": 6125, "415244": 6126, "2062656c6965766573": 6127, "20636f6e6e656374696f6e": 6128, "2070726f6d6f7465": 6129, "20737472756374": 6130, "204a6f686e736f6e": 6131, "696464656e": 6132, "20726573706f6e736962696c697479": 6133, "7265746368": 6134, "20656e746972656c79": 6135, "20707572636861736564": 6136, "414c4c": 6137, "20636f6e6365726e6564": 6138, "20636f6e6365726e73": 6139, "206c6f73736573": 6140, "2076696f6c656e6365": 6141, "207061727469636970617465": 6142, "2072656d61696e696e67": 6143, "20547261636b": 6144, "2070726f706f736564": 6145, "20746f756368646f776e": 6146, "2067726162": 6147, "20696e6a7572696573": 6148, "2072656c6174696f6e7368697073": 6149, "20657870657269656e636564": 6150, "726f6c6c6572": 6151, "2066616d696c696172": 6152, "2072657374617572616e7473": 6153, "205068696c6164656c": 6154, "2050726f666573736f72": 6155, "206d656e74696f6e6564": 6156, "205468616e6b73676976696e67": 6157, "20726f7574696e65": 6158, "20e282ac": 6159, "20737572707269736564": 6160, "206f63636173696f6e": 6161, "6c6173746e616d65": 6162, "2073747265657473": 6163, "636c65726f736973": 6164, "2057696e6777617265": 6165, "20696c6c6567616c": 6166, "204368616c6c656e6765": 6167, "207665746572696e617269616e": 6168, "207265736561726368657273": 6169, "205068696c6164656c70686961": 6170, "454c": 6171, "46696e": 6172, "476f": 6173, "496e74": 6174, "4d65": 6175, "4d61726b": 6176, "4f43": 6177, "62616e": 6178, "62656c6c": 6179, "646f6e": 6180, "6673": 6181, "67726567": 6182, "6d6574": 6183, "706179": 6184, "706f7374": 6185, "70726574": 6186, "736865": 6187, "7965": 6188, "2074696d": 6189, "686574686572": 6190, "696e69": 6191, "6f6e7573": 6192, "61747265": 6193, "2077617273": 6194, "656e6368": 6195, "20626f6c64": 6196, "20626f6d62": 6197, "20626f64696573": 6198, "206272696566": 6199, "206672756974": 6200, "2066616e746173746963": 6201, "696e676c79": 6202, "616e6961": 6203, "616e6379": 6204, "20696e65": 6205, "6173686564": 6206, "20687573": 6207, "20686f6c65": 6208, "206c697175": 6209, "207265666f726d": 6210, "2072656163686564": 6211, "206563": 6212, "20656c6567": 6213, "205475726e": 6214, "205343": 6215, "2053616c": 6216, "20536f756e64": 6217, "20536f6e79": 6218, "2062656172": 6219, "6f746963": 6220, "20666f726d73": 6221, "20436164": 6222, "2073746f70706564": 6223, "204d696b65": 6224, "69727479": 6225, "2042616e64": 6226, "20616e78": 6227, "696c6c616765": 6228, "20313230": 6229, "2070726f7665": 6230, "20446574": 6231, "204469676974616c": 6232, "204475626169": 6233, "67656e64": 6234, "205269676874": 6235, "2046616e74617379": 6236, "20486173": 6237, "657373696f6e73": 6238, "756e6765": 6239, "2047616d6573": 6240, "7573696f6e": 6241, "204e6174696f6e": 6242, "204e69676874": 6243, "204c656d6f6e": 6244, "2076617279": 6245, "726573706f6e64": 6246, "20727562": 6247, "207368617065": 6248, "616e6461": 6249, "204f6b": 6250, "2063686f636f6c617465": 6251, "20757375616c": 6252, "666565": 6253, "62657274": 6254, "697a7a61": 6255, "20496e766974": 6256, "204b656e74": 6257, "6570696e67": 6258, "6972656d656e74": 6259, "20616772656564": 6260, "2073706f7473": 6261, "206163636964656e74": 6262, "69616e6f": 6263, "616e676573": 6264, "20666c61766f72": 6265, "2032303033": 6266, "636f6d70": 6267, "2062756666": 6268, "2050726f6475": 6269, "20726567756c": 6270, "73686f70": 6271, "2061737369676e6564": 6272, "207472616e73666f726d": 6273, "2063617272696564": 6274, "207375626d6974": 6275, "20737562726f7574": 6276, "20696e7374616e6365": 6277, "757073": 6278, "20636f6d707574657273": 6279, "20726561646572": 6280, "20636f756e7479": 6281, "20666f6c6c6f7773": 6282, "2063656e74757279": 6283, "206d61726b657473": 6284, "20626967676572": 6285, "20706572666f726d616e636573": 6286, "2066696c6d73": 6287, "2070726f666974": 6288, "206c6f76656c79": 6289, "206576696c": 6290, "206f70706f6e656e74": 6291, "20666f726d6564": 6292, "2072656e746564": 6293, "75636c656172": 6294, "207061796d656e74": 6295, "20656c696d696e": 6296, "207665676574": 6297, "20636f6e666964656e74": 6298, "2062726f6b65": 6299, "206d75736963616c": 6300, "206571756976616c": 6301, "20726564756374696f6e": 6302, "206578706c61696e6564": 6303, "20636f6e73747275": 6304, "20636f6e737469747574696f6e": 6305, "20686f757365686f6c64": 6306, "206c617773": 6307, "206d696c6b": 6308, "206d617267696e": 6309, "206d756c7469": 6310, "20686f73746564": 6311, "206d6574616c": 6312, "20777269746572": 6313, "204d6343": 6314, "20636f6e73756d657273": 6315, "20706f7274696f6e": 6316, "2063616d65726173": 6317, "2077616c6b696e67": 6318, "20707261637469636573": 6319, "6f677261706879": 6320, "207061636b61676573": 6321, "20737769746368": 6322, "2063617573696e67": 6323, "20736f756e6473": 6324, "2070726976616379": 6325, "20616e7377657273": 6326, "2074726176656c696e67": 6327, "2075706461746564": 6328, "2053747564656e74": 6329, "2066696775726573": 6330, "20696e7665737469676174696f6e": 6331, "207465616368657273": 6332, "20736f6e6773": 6333, "2042726f6f6b": 6334, "20506f72747567": 6335, "204163636f7264696e67": 6336, "20696e737069726564": 6337, "204b6e69676874": 6338, "206c697465726174757265": 6339, "2063616e64696461746573": 6340, "2061706172746d656e74": 6341, "204f68696f": 6342, "206170706c696564": 6343, "206772616475617465": 6344, "20416672696361": 6345, "20646961676e6f736973": 6346, "204d617373616368757365747473": 6347, "2053656e617465": 6348, "20626567696e73": 6349, "206162736f6c7574656c79": 6350, "416d65726963616e": 6351, "20756c7472616361706163": 6352, "204172697a6f6e61": 6353, "20526f62657274": 6354, "20456d70697265": 6355, "20496e7669746174696f6e616c": 6356, "2e2d": 6357, "436f6d70": 6358, "464947": 6359, "494354": 6360, "4a6f": 6361, "5175": 6362, "537562": 6363, "5544": 6364, "67616d65": 6365, "6f7a": 6366, "706573": 6367, "72756d": 6368, "75696c64": 6369, "2074726565": 6370, "207461696c": 6371, "2074697373": 6372, "2074696564": 6373, "2074617073": 6374, "2074657272": 6375, "20746572726f72": 6376, "696e656d": 6377, "20736f77": 6378, "20736368": 6379, "69746172": 6380, "2066697368696e67": 6381, "206661766f7572": 6382, "616c6f67": 6383, "20646976": 6384, "20646976657273697479": 6385, "20646f776e74": 6386, "696369616e73": 6387, "206c6573": 6388, "206c6f7365": 6389, "206c6f636b": 6390, "7374657273": 6391, "2072656e": 6392, "206e6f7365": 6393, "2067726f": 6394, "20676179": 6395, "20536574": 6396, "20536f6d6574": 6397, "616d696e": 6398, "20434f": 6399, "20437573746f6d": 6400, "20436f6f706572": 6401, "6f776564": 6402, "696d70": 6403, "69676174696f6e": 6404, "207374616469756d": 6405, "204d41": 6406, "204d73": 6407, "204d6963": 6408, "204d617279": 6409, "204d6f756e74": 6410, "204d6178": 6411, "20427572": 6412, "20426f7468": 6413, "20426174746c65": 6414, "2068656176": 6415, "205768657265": 6416, "202824": 6417, "204461696c79": 6418, "20527574": 6419, "20526162": 6420, "206f7269656e74": 6421, "20636f6e74657874": 6422, "20736563726574": 6423, "2048697374": 6424, "74686174": 6425, "756e6374696f6e": 6426, "6f7074": 6427, "6f706c6573": 6428, "204e6f7274": 6429, "204e616d65": 6430, "204e4241": 6431, "204e5346": 6432, "204558": 6433, "697665726564": 6434, "204c4c": 6435, "204c6162": 6436, "204c6f7665": 6437, "20657863656564": 6438, "2073687574": 6439, "756d7374": 6440, "204f616b": 6441, "204f7074": 6442, "204f6c796d70": 6443, "6f757273": 6444, "2063686f73656e": 6445, "20636f6d70617265": 6446, "20636f6d706c69": 6447, "616773": 6448, "6167756573": 6449, "666572656e636573": 6450, "20616473": 6451, "2075706772": 6452, "206d7973746572": 6453, "736f6674": 6454, "206f6666656e7365": 6455, "203334": 6456, "2056616e": 6457, "207265637265": 6458, "20756e7573": 6459, "20756e656d": 6460, "20756e61626c65": 6461, "2073636f72696e67": 6462, "206170706f696e74": 6463, "206170706561726564": 6464, "656e73697479": 6465, "20737072": 6466, "2073706f6b6573": 6467, "207472757468": 6468, "20617267": 6469, "2066656573": 6470, "2070726576656e74696f6e": 6471, "2066697273746e616d65": 6472, "20666c6174": 6473, "20666c6f776572": 6474, "70686173": 6475, "206772656174657374": 6476, "206174746f726e6579": 6477, "6572736f6e616c": 6478, "206d696e696e67": 6479, "203735": 6480, "20436c696d617465": 6481, "20636865657365": 6482, "2073686f77696e67": 6483, "206d6f646572": 6484, "2063616c6c696e67": 6485, "2063686172676564": 6486, "2070726f636573736573": 6487, "206361726566756c": 6488, "204265696e67": 6489, "2046726f6e74": 6490, "206d61726b73": 6491, "20737570706f7274696e67": 6492, "206b6579706164": 6493, "20436f6e6e65": 6494, "20636f72726573706f6e64": 6495, "206865616473": 6496, "20696e74657265737473": 6497, "20617070726f76616c": 6498, "20657874656e73697665": 6499, "20656c6967": 6500, "6c6574746572": 6501, "20706f736974696f6e73": 6502, "20666163696c6974": 6503, "20657175616c": 6504, "206b656570696e67": 6505, "206964656e74697479": 6506, "2070726573656e746564": 6507, "2043656e747265": 6508, "20746573746564": 6509, "206665617475726564": 6510, "206d616a6f72697479": 6511, "2064697665727365": 6512, "20617574686f72697479": 6513, "2063726561746573": 6514, "206465616c696e67": 6515, "20586f6f6d": 6516, "2066756e6473": 6517, "20726570726573656e7473": 6518, "20656d706c6f796565": 6519, "20646566656174": 6520, "207371756164": 6521, "20436f756e747279": 6522, "2064726177696e67": 6523, "206a6f696e6564": 6524, "2054776974746572": 6525, "20646562617465": 6526, "486f7765766572": 6527, "20617564696f": 6528, "72696d696e6174696f6e": 6529, "207072696d6172696c79": 6530, "20416761696e": 6531, "2065787072657373696f6e": 6532, "20657373656e7469616c": 6533, "20646973747269627574696f6e": 6534, "206261736b657462616c6c": 6535, "20626f7973": 6536, "206472756773": 6537, "20686f727365": 6538, "2077617463686564": 6539, "204166726963616e": 6540, "206669786564": 6541, "20696d7072657373697665": 6542, "20657874656e646564": 6543, "205365636f6e64": 6544, "2063617465676f7279": 6545, "69737068657265": 6546, "20636f6d706f736974696f6e": 6547, "204d65646963617265": 6548, "2073616d706c6573": 6549, "20486f74656c": 6550, "20646f6c6c617273": 6551, "206170706172656e746c79": 6552, "2077656c636f6d65": 6553, "2057696e646f7773": 6554, "2066656d616c65": 6555, "20416e616c79736973": 6556, "52656c61746564": 6557, "206c61756e63686564": 6558, "2061746d6f737068657265": 6559, "20756e6c6f636b6564": 6560, "206571756976616c656e74": 6561, "2069676e": 6562, "3037": 6563, "3334": 6564, "3635": 6565, "3736": 6566, "3a7c7c": 6567, "4945": 6568, "53696e6365": 6569, "536565": 6570, "627574": 6571, "62616765": 6572, "63616e": 6573, "64656e": 6574, "667269656e64": 6575, "68757369": 6576, "696174696f6e73": 6577, "6b67": 6578, "6b696e73": 6579, "6d617279": 6580, "6d61746963": 6581, "6e6963": 6582, "70686572": 6583, "726164": 6584, "74696373": 6585, "7679": 6586, "796f75": 6587, "20746f72": 6588, "2074696e79": 6589, "2077697265": 6590, "206361726473": 6591, "6974616e": 6592, "6f726174696f6e": 6593, "656e61": 6594, "20626174": 6595, "2062696b65": 6596, "206272656174": 6597, "20626f776c": 6598, "206675656c": 6599, "6f757269": 6600, "656479": 6601, "206d7574": 6602, "20696e6475": 6603, "206475": 6604, "20686174": 6605, "6c6c61": 6606, "726f79": 6607, "726f7068": 6608, "20656c656374696f6e": 6609, "20676174686572": 6610, "2054656d": 6611, "206265616368": 6612, "6964656c": 6613, "2079656c6c6f77": 6614, "2043617374": 6615, "204372656174": 6616, "63656c": 6617, "61646f": 6618, "20756e65": 6619, "697261": 6620, "20506574": 6621, "20507574": 6622, "20507269": 6623, "207765616c7468": 6624, "726177": 6625, "72616765": 6626, "2044617461": 6627, "205253": 6628, "20526f6d": 6629, "20526f6c6c": 6630, "204669656c64": 6631, "20636f6e6372657465": 6632, "20486f6c": 6633, "756c7074": 6634, "7468726f77": 6635, "707079": 6636, "657374796c65": 6637, "6162696e": 6638, "6162657468": 6639, "20474f50": 6640, "697374616e74": 6641, "204c6976696e67": 6642, "20737563": 6643, "6f72746564": 6644, "6f736573": 6645, "2063686f6f73696e67": 6646, "5468656e": 6647, "206861736e": 6648, "6f637261": 6649, "20776f7273686970": 6650, "636c61696d": 6651, "205468696e6b": 6652, "20636f6e74656d": 6653, "2059616e": 6654, "20726573756d65": 6655, "20497473": 6656, "696e7473": 6657, "6f626f6479": 6658, "20707265706172": 6659, "206163636f6d70": 6660, "20616d656e64": 6661, "20353030": 6662, "20636f6d6d616e64": 6663, "2052657175": 6664, "75616c697479": 6665, "5468616e6b73": 6666, "6f6c6c79": 6667, "7563686d616e": 6668, "20737570706f736564": 6669, "20656e7468757369": 6670, "2073686f756c646e": 6671, "20446566": 6672, "20446576": 6673, "20466f726d": 6674, "206368656170": 6675, "616c6579": 6676, "206372656174696f6e": 6677, "2063617061626c65": 6678, "20617574686f7273": 6679, "206672616e6368": 6680, "207465726d696e616c73": 6681, "204c656164": 6682, "20746563686e69717565": 6683, "20646973636f766572": 6684, "6971756573": 6685, "2063726973": 6686, "204d616e61676572": 6687, "696b696e67": 6688, "67657279": 6689, "20666163746f72": 6690, "2031393931": 6691, "2062726577": 6692, "206c656769736c": 6693, "20506c7573": 6694, "74656e616e6365": 6695, "206e65777370": 6696, "20686f70696e67": 6697, "65637574697665": 6698, "32303134": 6699, "2070726573656e746174696f6e": 6700, "415245": 6701, "207265647563696e67": 6702, "206f6666696369616c6c79": 6703, "2073747275636b": 6704, "2074656c6c696e67": 6705, "2074726561746564": 6706, "20456e7669726f6e6d656e74": 6707, "20796f756e676572": 6708, "20486967686c616e64": 6709, "2070687973696369616e": 6710, "20656c656374726f6e": 6711, "2063756c747572616c": 6712, "20506572666f726d": 6713, "20646973636c6f73757265": 6714, "207072697a65": 6715, "20726164696f": 6716, "205765737462726f6f6b": 6717, "206d6f74696f6e": 6718, "204d6963686967616e": 6719, "204a757374696365": 6720, "20636c6f736572": 6721, "70726f666974": 6722, "2070756c6c6564": 6723, "204f6666696365": 6724, "2062616c616e636564": 6725, "20626f6174": 6726, "204163636f756e74": 6727, "207072696e746564": 6728, "2064656c697665726564": 6729, "206d696e696d756d": 6730, "20707265666572726564": 6731, "20696e737472756374696f6e73": 6732, "207365656b696e67": 6733, "20616e616c797374": 6734, "205370656369616c": 6735, "206c656164657273686970": 6736, "2070686f746f677261706879": 6737, "2048444d49": 6738, "2043757272656e74": 6739, "204d617274696e": 6740, "20746572726974": 6741, "2043616d61726f": 6742, "2067617264656e": 6743, "2076656e756573": 6744, "2053696c766572": 6745, "204a6f73657068": 6746, "616d696c746f6e": 6747, "20616e6369656e74": 6748, "20636f6d70726568656e73697665": 6749, "207363686564756c6564": 6750, "20696e6772656469656e7473": 6751, "2045554c41": 6752, "20696e737469747574696f6e73": 6753, "2068757362616e64": 6754, "20636f6d706c69616e6365": 6755, "7068657264": 6756, "206572726f72": 6757, "4157": 6758, "417072696c": 6759, "4453": 6760, "4c65": 6761, "4d616e": 6762, "4f66": 6763, "4f766572": 6764, "5073": 6765, "506f6c": 6766, "5354": 6767, "5552": 6768, "6165": 6769, "637573": 6770, "66726565": 6771, "68696768": 6772, "69656c": 6773, "696162696c697479": 6774, "69616d73": 6775, "6d616b6572": 6776, "6d616b657273": 6777, "6e6574": 6778, "72616e74": 6779, "736d": 6780, "7a696e67": 6781, "2074616c6c": 6782, "206170": 6783, "68656e74": 6784, "20736973746572": 6785, "2077616b65": 6786, "2063757465": 6787, "697469": 6788, "69746572": 6789, "657373656c": 6790, "2066726f": 6791, "206675726e": 6792, "696e6765": 6793, "6564696e67": 6794, "616e7574": 6795, "20746f6d": 6796, "206d696c65": 6797, "20646164": 6798, "2064796e": 6799, "206461746162617365": 6800, "6c6576656c": 6801, "2068757274": 6802, "6c6c6967": 6803, "206c6f766573": 6804, "206c79636f70656e65": 6805, "20726577617264": 6806, "2072656c6576616e74": 6807, "20497265": 6808, "2054616b65": 6809, "205465726d": 6810, "20536172": 6811, "2053796e": 6812, "6964617973": 6813, "20796573": 6814, "20415343": 6815, "20436972": 6816, "20437265656b": 6817, "20737461746564": 6818, "2073747265616d73": 6819, "6f6c61": 6820, "6f6c7665": 6821, "204d6f76": 6822, "204d4f5245": 6823, "204261": 6824, "2042726f77": 6825, "204261726e": 6826, "20506f70": 6827, "20506965": 6828, "2077656172696e67": 6829, "20616e67": 6830, "696c6c79": 6831, "2070726f636564": 6832, "20617468": 6833, "20466f7572": 6834, "2046616374": 6835, "20466f6f74": 6836, "2077617368": 6837, "204e43": 6838, "204572": 6839, "204576656e74": 6840, "204c69676874": 6841, "20766f696365": 6842, "2073686966": 6843, "656c6c656374": 6844, "756d626572": 6845, "756d7073": 6846, "206e6f7469636564": 6847, "6f75727365": 6848, "206a61636b": 6849, "61676f6e": 6850, "20776f727374": 6851, "696576": 6852, "2061646d": 6853, "206164766572746973696e67": 6854, "204b6172": 6855, "204b617468": 6856, "204b616e736173": 6857, "2054686f756768": 6858, "20676f7665726e": 6859, "206469736173746572": 6860, "756265": 6861, "205965": 6862, "2053746174": 6863, "61726b73": 6864, "207265636f76657279": 6865, "20616e79776179": 6866, "20756e6976657273": 6867, "2073636172": 6868, "2073637265656e73": 6869, "2061707073": 6870, "20666565": 6871, "20726f74": 6872, "6d65726365": 6873, "636c75646564": 6874, "66746f6e": 6875, "696f75736c79": 6876, "20706f6f6c": 6877, "20666c69676874": 6878, "61776179": 6879, "207068617365": 6880, "2072656c6178": 6881, "7269746572": 6882, "2053656c656374": 6883, "20677565737473": 6884, "2067756172616e74": 6885, "207472616e736974696f6e": 6886, "207472616e736d6974746564": 6887, "203730": 6888, "2073756273657175": 6889, "20436c6f7564": 6890, "207765656b6c79": 6891, "20646563616465": 6892, "2077696e6e657273": 6893, "6365727461696e": 6894, "20706572736f6e616c6c79": 6895, "20416c746f": 6896, "207369676e73": 6897, "206361726566756c6c79": 6898, "206578706f736564": 6899, "206d656469756d": 6900, "20706f7374696e67": 6901, "2070726f7669646572": 6902, "204672616e6365": 6903, "206d61726b6564": 6904, "2041726368": 6905, "2041727473": 6906, "204c6567": 6907, "20746563686e6971756573": 6908, "203031": 6909, "206f706572617465": 6910, "205265736572766564": 6911, "20526573756c7473": 6912, "20636f6e74726f6c73": 6913, "2031393935": 6914, "20636f6e666964656e6365": 6915, "414e54": 6916, "206d7573636c65": 6917, "206661636564": 6918, "206c617267656c79": 6919, "20c2a9": 6920, "6c656d656e74617279": 6921, "20636f6e73756d6572": 6922, "20436f6e74656e74": 6923, "616669": 6924, "206661696c6564": 6925, "20537570706f7274": 6926, "207061636b616765": 6927, "20637269746963": 6928, "20616e6e6f756e6365": 6929, "207265636f6d6d656e646174696f6e73": 6930, "2072657370656374697665": 6931, "20726573706563746976656c79": 6932, "2064697363757373696f6e": 6933, "20536f6369657479": 6934, "20636c6f73696e67": 6935, "416c736f": 6936, "757365756d": 6937, "636c7573696f6e": 6938, "206261736562616c6c": 6939, "7365637574697665": 6940, "20736572696f75736c79": 6941, "206368656d6963616c73": 6942, "20526f62696e736f6e": 6943, "2072657665616c6564": 6944, "20646570656e64696e67": 6945, "206d6963726f636f6e74": 6946, "206c6f61646564": 6947, "206d61676963": 6948, "20636f6d666f727461626c65": 6949, "2067656e646572": 6950, "2066656c6c6f77": 6951, "2070616473": 6952, "206772617068696373": 6953, "207661636174696f6e": 6954, "204a6572736579": 6955, "20766f6c756e7465657273": 6956, "204d61696e65": 6957, "207363656e6573": 6958, "207465616d6d61746573": 6959, "20737570706c696564": 6960, "2062617474657279": 6961, "2054797065": 6962, "2072617069646c79": 6963, "206d616368696e65": 6964, "20466f72657374": 6965, "20456e7465727072697365": 6966, "2073706c6974": 6967, "204461726b6f": 6968, "207073796368": 6969, "20776561706f6e73": 6970, "20657069736f6465": 6971, "2068656d69737068657265": 6972, "20756e757375616c": 6973, "206d6963726f636f6e74726f6c6c6572": 6974, "2040": 6975, "2122": 6976, "297c": 6977, "3432": 6978, "383030": 6979, "416464": 6980, "4341": 6981, "43616e": 6982, "4564": 6983, "454354": 6984, "46726565": 6985, "4669727374": 6986, "47726f7570": 6987, "494553": 6988, "4d65646961": 6989, "4e43": 6990, "4f72": 6991, "5045": 6992, "52656164": 6993, "546f70": 6994, "616665": 6995, "627265": 6996, "646f6d": 6997, "656368": 6998, "657175": 6999, "66726f6d": 7000, "66666565": 7001, "676f6e": 7002, "696f6c6f6779": 7003, "6b697474656e": 7004, "6c6168": 7005, "706574": 7006, "7369": 7007, "7468656e": 7008, "7768656c": 7009, "796d": 7010, "20746965": 7011, "207465617273": 7012, "20616964": 7013, "72657175": 7014, "207371": 7015, "2073697a6573": 7016, "207769746e657373": 7017, "206f77": 7018, "69736572": 7019, "69736d73": 7020, "20626f6e7573": 7021, "2070696e": 7022, "616e697368": 7023, "206c75636b79": 7024, "206e6f6e65": 7025, "204954": 7026, "20496365": 7027, "6c79696e67": 7028, "2053757265": 7029, "2053616e7461": 7030, "75746f7273": 7031, "6964616e": 7032, "6f746564": 7033, "204150": 7034, "20417072": 7035, "616d696e67": 7036, "20436174": 7037, "2043726564": 7038, "20434f4e": 7039, "63656c6572": 7040, "6967696e616c": 7041, "207374656164": 7042, "6f6c6b73": 7043, "204d617474": 7044, "696c6f73": 7045, "20426164": 7046, "2042656c6c": 7047, "20426f78": 7048, "20426f6479": 7049, "2050696c": 7050, "2050617374": 7051, "726162": 7052, "206865726f": 7053, "206173696465": 7054, "205761746368": 7055, "206861636b": 7056, "204445": 7057, "20444e41": 7058, "205268": 7059, "2052616e6765": 7060, "204652": 7061, "2046657374": 7062, "2046616c6c": 7063, "2046757274686572": 7064, "20465245": 7065, "20636f6e63": 7066, "20736563746f72": 7067, "206465706c6f79": 7068, "756e616c": 7069, "6f70656e": 7070, "2047656e": 7071, "2047616c": 7072, "7573696e67": 7073, "204e6574": 7074, "20457874": 7075, "2076696365": 7076, "726573656e74": 7077, "2072696e67": 7078, "2072696465": 7079, "71756172": 7080, "656c657373": 7081, "756d626c65": 7082, "204a61736f6e": 7083, "20636f6d706c6963": 7084, "206a6f696e74": 7085, "206b696c6c696e67": 7086, "696e64696e67": 7087, "697a6162657468": 7088, "20656e61626c65": 7089, "204b656e73657468": 7090, "205468726f756768": 7091, "6173736d656e74": 7092, "205374796c65": 7093, "203333": 7094, "206e65776c79": 7095, "2056696577": 7096, "20756e6c657373": 7097, "20756e6c696b65": 7098, "20756e6b6e6f776e": 7099, "204974616c69616e": 7100, "207065616b": 7101, "2070656f706c6573": 7102, "207370656c6c": 7103, "20636f66666565": 7104, "20626c616e6b": 7105, "20666c75": 7106, "696669636174696f6e73": 7107, "206f776e6564": 7108, "20696e766f696365": 7109, "20416e64726f6964": 7110, "2053656174746c65": 7111, "206775657374": 7112, "20426c69747a": 7113, "207472616e736c": 7114, "207472616e73616374696f6e73": 7115, "2073756274": 7116, "6976657273617279": 7117, "2053686f756c64": 7118, "2053687563686d616e": 7119, "20696e74656c6c6967": 7120, "20696e746572696f72": 7121, "20696e74657270726574": 7122, "2070757473": 7123, "20646566656e73697665": 7124, "62656f": 7125, "2064697374696e6374": 7126, "20636f72706f72617465": 7127, "206469726563746564": 7128, "207374616e64696e67": 7129, "206261736963616c6c79": 7130, "75636f7365": 7131, "206c6573736f6e": 7132, "2031393930": 7133, "207669657773": 7134, "4f5254": 7135, "20636f6e66726f6e74": 7136, "206472616674": 7137, "20313430": 7138, "6372696265": 7139, "2073616c74": 7140, "20636f6e73746974": 7141, "207465737473": 7142, "20436f6c6f72": 7143, "204361726c": 7144, "20696e766f6c766573": 7145, "526567": 7146, "20696e7465726e6574": 7147, "207061636b6564": 7148, "20706572666563746c79": 7149, "206465666561746564": 7150, "6772657373697665": 7151, "20726570726573656e746564": 7152, "204775617264": 7153, "20636f6e74726962757465": 7154, "2074617267657473": 7155, "20696e7374616c6c6564": 7156, "20696e7374616c6c6174696f6e": 7157, "6d61726b6574": 7158, "20616e7469636970": 7159, "205061727479": 7160, "206a6f696e696e67": 7161, "2072656d61696e6564": 7162, "726965766564": 7163, "20636f6c6c6563746564": 7164, "20617474656e646564": 7165, "20766f74657273": 7166, "2075706461746573": 7167, "2073757370": 7168, "20626f786573": 7169, "2042726f6164": 7170, "20696d6d6967": 7171, "20696e7465727669657773": 7172, "20476f7665726e6d656e74": 7173, "2070616e656c": 7174, "20496e746572636f6c": 7175, "2074726962616c": 7176, "206e65676f74": 7177, "206e6f726d616c6c79": 7178, "204175746f": 7179, "20417574686f72": 7180, "20617474656d707473": 7181, "206761736f6c696e65": 7182, "20696e7465677261746564": 7183, "20736574746c65": 7184, "206d6167617a696e65": 7185, "206472696e6b696e67": 7186, "2067617262616765": 7187, "2053756e6e79": 7188, "20696e74726f6475636564": 7189, "20636f6c6c61626f726174696f6e": 7190, "20696e666c75656e": 7191, "207374796c6573": 7192, "2063697263756d7374": 7193, "6f6772617068657273": 7194, "204e5943": 7195, "206c616e646d61726b73": 7196, "2063656c656272617465": 7197, "204d6973736f757269": 7198, "2068616269746174": 7199, "4e657874": 7200, "2073747261746567696573": 7201, "2054686f6d6173": 7202, "20636f6e76656e69656e74": 7203, "636f6d6d756e69636174696f6e": 7204, "206d6178696d756d": 7205, "204c6f756973": 7206, "204d6963726f736f6674": 7207, "204d696c6c6572": 7208, "2077656464696e67": 7209, "205475626163": 7210, "20737562726f7574696e65": 7211, "6f6372616379": 7212, "2046524545": 7213, "20496e746572636f6c6c656769617465": 7214, "2063697263756d7374616e636573": 7215, "2029": 7216, "207572": 7217, "2069726f6e": 7218, "20757262616e": 7219, "3039": 7220, "3431": 7221, "3433": 7222, "3539": 7223, "3638": 7224, "4275": 7225, "427573696e657373": 7226, "434c": 7227, "436f6d6d": 7228, "45616368": 7229, "4775": 7230, "476f6c64": 7231, "4d6f7374": 7232, "4f70656e": 7233, "506572": 7234, "526570": 7235, "5345": 7236, "5355": 7237, "5375": 7238, "596f7572": 7239, "6372": 7240, "637574": 7241, "636f757274": 7242, "65706572": 7243, "66697368": 7244, "68616e64": 7245, "6e69": 7246, "6f697374": 7247, "70616e": 7248, "726174": 7249, "72616e6365": 7250, "7575": 7251, "756d656e74": 7252, "7561746564": 7253, "766f": 7254, "207469676874": 7255, "207461626c6573": 7256, "696e74656e64": 7257, "696e636c7564696e67": 7258, "7265707265": 7259, "6f6e6e61": 7260, "207468656f7279": 7261, "65726965": 7262, "20736f75746865726e": 7263, "6974757265": 7264, "6f7269616c": 7265, "20626964": 7266, "2062756c6c79": 7267, "696e6775": 7268, "206d6972": 7269, "20646965": 7270, "206469616c": 7271, "2064726962": 7272, "20647265616d": 7273, "20686f6f6b": 7274, "206c75636b": 7275, "206c69766564": 7276, "737472756374696f6e": 7277, "20726563657074696f6e": 7278, "206e657276": 7279, "206e696e7468": 7280, "2065426179": 7281, "204964": 7282, "20676967": 7283, "6c796e": 7284, "205461626c65": 7285, "205348": 7286, "2053746f": 7287, "205369676e": 7288, "757479": 7289, "20417564": 7290, "20416666": 7291, "20666f7274": 7292, "20436f6f6b": 7293, "20436f6465": 7294, "2043454f": 7295, "6f7765726564": 7296, "61646f77": 7297, "69677565": 7298, "636874": 7299, "2073746f726d": 7300, "204d6574": 7301, "204d6964": 7302, "204d6170": 7303, "204d616a6f72": 7304, "69726c": 7305, "69726174696f6e": 7306, "20427564": 7307, "2042617365": 7308, "20426f62": 7309, "2042697363": 7310, "205073": 7311, "205075": 7312, "20506170657273": 7313, "2068656172696e67": 7314, "6b656573": 7315, "20576969": 7316, "2052657374": 7317, "20466564": 7318, "20466f7274": 7319, "6c646572": 7320, "20636f6e76696e": 7321, "20636f6e7365637574697665": 7322, "6174656779": 7323, "6865727279": 7324, "207365616d": 7325, "20486f": 7326, "2048616d696c746f6e": 7327, "6573746963": 7328, "6f70616c": 7329, "204748": 7330, "75736b": 7331, "6973746564": 7332, "204e4f54": 7333, "20456c65": 7334, "20456173746572": 7335, "20455052": 7336, "204c6963": 7337, "204c6577": 7338, "20657870656e7365": 7339, "7573746564": 7340, "2073686170": 7341, "2073686f6573": 7342, "207368696674": 7343, "756d696e": 7344, "6f736d": 7345, "204f706572": 7346, "2063686f69636573": 7347, "204a72": 7348, "6f6464": 7349, "20636f6d706f6e656e7473": 7350, "6f636865": 7351, "6f6369616c": 7352, "616b697374616e": 7353, "205572": 7354, "69706572": 7355, "20736f6c65": 7356, "7565656e": 7357, "20656e6162": 7358, "20656e666f7263656d656e74": 7359, "20496e66": 7360, "204b6174": 7361, "204b656c6c79": 7362, "205468726565": 7363, "205468616e6b": 7364, "2064697373": 7365, "206469736f72646572": 7366, "617373696e67": 7367, "76656e756573": 7368, "2053746174696f6e": 7369, "20333030": 7370, "207265736f6c7574696f6e": 7371, "20726573637565": 7372, "204368726f6d65": 7373, "20566572": 7374, "207265636970": 7375, "207265636f766572": 7376, "2073706f7274": 7377, "20737061726b": 7378, "6f7273636865": 7379, "207472617368": 7380, "207477656e7479": 7381, "2031393830": 7382, "20666c6f77": 7383, "20747261696e": 7384, "2065766572797768657265": 7385, "20676f6f6473": 7386, "20616374696e67": 7387, "20656d70": 7388, "20656d70686173": 7389, "2072656c6174696e67": 7390, "74797065": 7391, "2067726561746c79": 7392, "20416e64726577": 7393, "20436f6d62": 7394, "205365616e": 7395, "20646f6e6f72": 7396, "20696e737469747574696f6e": 7397, "20736d6f6f7468": 7398, "2068616e646c696e67": 7399, "2070726573656e7473": 7400, "20466f72756d": 7401, "2072657475726e696e67": 7402, "206d6f646966696564": 7403, "7269766573": 7404, "576562": 7405, "206578706f73757265": 7406, "2073746174656d656e7473": 7407, "207669736974696e67": 7408, "20676f7474656e": 7409, "20737570706f72746564": 7410, "207265636f7264696e67": 7411, "2066756e6e79": 7412, "2064657369676e73": 7413, "203038": 7414, "2067726164": 7415, "207374726174656779": 7416, "206272616b6573": 7417, "20496e646578": 7418, "20436f6e71756572": 7419, "20436f6e737469747574696f6e": 7420, "206d6f766573": 7421, "20726563656976696e67": 7422, "75636b73": 7423, "20657874656e74": 7424, "20696e636964656e74": 7425, "2031393932": 7426, "2031393937": 7427, "206f7267616e6963": 7428, "697363616c": 7429, "2076616c6964": 7430, "2062726f776e": 7431, "20666163756c7479": 7432, "20697373756564": 7433, "20636972636c65": 7434, "415252": 7435, "206c6967687473": 7436, "20696e666f": 7437, "2074656d706f72": 7438, "20656e6761676564": 7439, "207072657373696e67": 7440, "2070726f6d697365": 7441, "2074656c6c73": 7442, "206b696e6473": 7443, "2064657461696c6564": 7444, "20617574686f72697a6564": 7445, "20746f74616c6c79": 7446, "206472616d": 7447, "2068617070656e696e67": 7448, "7075746572": 7449, "20456e68": 7450, "20436f617374": 7451, "20436f6e74726f6c": 7452, "20726573706f6e736573": 7453, "2070726163746963616c": 7454, "6f67726170686963": 7455, "20737567676573746564": 7456, "206c696e6b6564": 7457, "69746573757266": 7458, "20776f6e646572696e67": 7459, "204d696e6973746572": 7460, "20636f6e6365726e": 7461, "2073656e736f72": 7462, "20656d626f64": 7463, "20636f6d6d756e6963617465": 7464, "20696d70726f76656d656e7473": 7465, "20456c697a6162657468": 7466, "206c696674": 7467, "207369676e69666963616e746c79": 7468, "2072656c6561736573": 7469, "204b6576696e": 7470, "207175616c6966696564": 7471, "20676f6c64656e": 7472, "206465737472756374696f6e": 7473, "206465706172746d656e7473": 7474, "20636f6d6d69746d656e74": 7475, "616e6465726b697474656e": 7476, "20706f6c6c7574696f6e": 7477, "206f726465726564": 7478, "20636f6d706c61696e74": 7479, "20637261636b": 7480, "20456d696c79": 7481, "20696e6372656173696e676c79": 7482, "20776174657273": 7483, "20696d706c656d656e746174696f6e": 7484, "20526574726965766564": 7485, "2073757276697665": 7486, "20656d657267656e6379": 7487, "20636f6e63656e74726174696f6e": 7488, "20636f6e74696e75696e67": 7489, "206f726967696e616c6c79": 7490, "2074726f6f7073": 7491, "20494445": 7492, "206e65696768626f72": 7493, "2050726976616379": 7494, "20636c6f7468696e67": 7495, "2053616e64626f78": 7496, "204372616967": 7497, "20617272616e67656d656e7473": 7498, "20457468696f7069616e": 7499, "20526f79616c": 7500, "207669727475616c": 7501, "20736176696e6773": 7502, "206d616e75666163747572657273": 7503, "20537072696e67": 7504, "20657870657274697365": 7505, "20666162726963": 7506, "206c6f73696e67": 7507, "204f666669636572": 7508, "2048756e746572": 7509, "2061636b6e6f776c6564": 7510, "206d7572646572": 7511, "204c6f66746f6e": 7512, "206f70696e696f6e": 7513, "20566963746f726961": 7514, "20504446": 7515, "2047616c6c657279": 7516, "206d696c6c696f6e73": 7517, "206a6577656c": 7518, "20636f6e737469747574696f6e616c": 7519, "2068656176696c79": 7520, "204c4c43": 7521, "20756e656d706c6f796d656e74": 7522, "20637269736973": 7523, "68656e746963": 7524, "656c6c65637475616c": 7525, "72657072656e65": 7526, "206e6572766f7573": 7527, "204550524f4d": 7528, "20657272": 7529, "313530": 7530, "3338": 7531, "3535": 7532, "3937": 7533, "3f22": 7534, "4156": 7535, "4162797373": 7536, "434f": 7537, "436f6e73": 7538, "466c": 7539, "464f52": 7540, "494b": 7541, "4d616c": 7542, "536f6d616c": 7543, "5472": 7544, "5545": 7545, "5953": 7546, "626172": 7547, "676f76": 7548, "686174": 7549, "6d616e73": 7550, "6d616465": 7551, "6e656c": 7552, "706f6e": 7553, "706f74": 7554, "75696e67": 7555, "7561626c65": 7556, "2074696c6c": 7557, "207461736b": 7558, "20617761726473": 7559, "696e69616e": 7560, "6f6e6961": 7561, "2073696e": 7562, "207369676874": 7563, "20736f7068": 7564, "697461": 7565, "6974616765": 7566, "6f72616c": 7567, "6f726f756768": 7568, "69736174696f6e": 7569, "697368657273": 7570, "2062756c": 7571, "2062696379": 7572, "20707261": 7573, "20706f756e64": 7574, "20706f756e6473": 7575, "616e6573": 7576, "616e616d69766972": 7577, "616c7479": 7578, "20746f6c6572": 7579, "206d6f7274": 7580, "20696e6578": 7581, "2068616c": 7582, "2068616c6c": 7583, "206c6175": 7584, "206c696272": 7585, "206c696768746572": 7586, "206c61736572": 7587, "206e6f6d": 7588, "206e6174697665": 7589, "20676170": 7590, "205453": 7591, "205469676572": 7592, "65747279": 7593, "6574746573": 7594, "20536f6e": 7595, "20536c65": 7596, "20536f6d616c": 7597, "757474": 7598, "69646164": 7599, "6f746573": 7600, "204152": 7601, "20417474": 7602, "616d626572": 7603, "616d656e7473": 7604, "20437265": 7605, "2043617365": 7606, "20434c41": 7607, "696d656e7473": 7608, "20796f757468": 7609, "207374617973": 7610, "6f6c766564": 7611, "204d50": 7612, "204d6174": 7613, "204d6164": 7614, "69726d6564": 7615, "204242": 7616, "6b656c6579": 7617, "2057616c6c": 7618, "2070726f78": 7619, "2070726f706f7274": 7620, "2061746865": 7621, "20446964": 7622, "204472697665": 7623, "20526f64": 7624, "20467269656e64": 7625, "20736561736f6e73": 7626, "756c73": 7627, "7468726f756768": 7628, "2064656572": 7629, "75736573": 7630, "20456c656d656e74617279": 7631, "204c696e": 7632, "20726967": 7633, "20726973696e67": 7634, "756d6572": 7635, "204f53": 7636, "204f7a": 7637, "20616c62": 7638, "20616c69656e": 7639, "20706c6f74": 7640, "6f73746572": 7641, "20646f7365": 7642, "206162756e64": 7643, "20636f6d70656e73": 7644, "616772616d": 7645, "206f75747374616e64696e67": 7646, "20616476656e74": 7647, "207465656e": 7648, "204b72697374": 7649, "2054686f7365": 7650, "76656e73": 7651, "20696d6167696e67": 7652, "20537472": 7653, "205374616e": 7654, "203338": 7655, "204368696c64": 7656, "69676e6d656e74": 7657, "6962696c6974696573": 7658, "6f7264616e": 7659, "61696c6564": 7660, "756c74757265": 7661, "205665746572": 7662, "207363756c7074": 7663, "2061676573": 7664, "696e74616765": 7665, "2068657273656c66": 7666, "20747765": 7667, "20737065616b696e67": 7668, "616d706167": 7669, "203431": 7670, "203436": 7671, "20626c696e64": 7672, "616e67657273": 7673, "20636f6d6d697373696f6e": 7674, "20666c6f": 7675, "2070726963696e67": 7676, "2070726f76696e6365": 7677, "2070726f647563696e67": 7678, "20627567": 7679, "20636f6c756d6e": 7680, "20726570726f6475": 7681, "2072656c696566": 7682, "20656e746572696e67": 7683, "7368697073": 7684, "20617373756d": 7685, "20736d656c6c": 7686, "204465617468": 7687, "20686967686c69676874": 7688, "20636f6d707574696e67": 7689, "207265746972656d656e74": 7690, "206368657374": 7691, "2062656c74": 7692, "20616363656c6572": 7693, "6379636c65": 7694, "20646576656c6f70657273": 7695, "2073757267657279": 7696, "20696e74657266616365": 7697, "206361707461696e": 7698, "2061727469737473": 7699, "2066616d6f7573": 7700, "207265616c697a6564": 7701, "203935": 7702, "20646973636f7665726564": 7703, "20706f73736962696c697479": 7704, "205265736f75726365": 7705, "204d616e7566616374": 7706, "207374616e6473": 7707, "20313830": 7708, "706f736974696f6e": 7709, "206c6573736f6e73": 7710, "2070617373696f6e": 7711, "20696e74656e74": 7712, "20766567616e": 7713, "20696d706f7274616e6365": 7714, "2076696577696e67": 7715, "6973636f70616c": 7716, "20537061696e": 7717, "205370616e697368": 7718, "206e6577736c6574746572": 7719, "2062726f6b656e": 7720, "6c65676573": 7721, "206d61696e74656e616e6365": 7722, "206661636573": 7723, "2064726976656e": 7724, "20647261776e": 7725, "616e6e656c73": 7726, "2074616c6b6564": 7727, "415254": 7728, "2074656d706c65": 7729, "757373696f6e": 7730, "20457865637574697665": 7731, "2050687973": 7732, "2070726573736564": 7733, "206c616e647363617065": 7734, "207265706f7274696e67": 7735, "207472656e6473": 7736, "206f63637570": 7737, "206f6363757273": 7738, "206d656d62657273686970": 7739, "205472696e": 7740, "20617070656172616e6365": 7741, "2063757474696e67": 7742, "20747261636b696e67": 7743, "6f73706974": 7744, "626974726174696f6e": 7745, "205379726961": 7746, "6e65736f7461": 7747, "20736561726368696e67": 7748, "206372697465726961": 7749, "2046696e616c6c79": 7750, "20486172726973": 7751, "20626561757479": 7752, "206d697373696e67": 7753, "207469746c6573": 7754, "2057696c6c69616d73": 7755, "2073657061726174696f6e": 7756, "20506f6c696365": 7757, "206d69786564": 7758, "204a757374696e": 7759, "20646973637573736564": 7760, "20766f746564": 7761, "2076696374696d73": 7762, "207265636f676e697a65": 7763, "2053747564696573": 7764, "6f666673": 7765, "205061747269636b": 7766, "206163686965766564": 7767, "416c74686f756768": 7768, "436c69636b": 7769, "20736c6565": 7770, "616475617465": 7771, "2070726570617265": 7772, "204c617772656e6365": 7773, "2064657374726f79": 7774, "20657373656e7469616c6c79": 7775, "20656e7465727072697365": 7776, "20696d6d656469617465": 7777, "2052656164696e67": 7778, "20756c74696d617465": 7779, "204d616c696b69": 7780, "206465707468": 7781, "2073657875616c": 7782, "2070686f746f677261706873": 7783, "2073696c766572": 7784, "206163717569726564": 7785, "20696e666c75656e6365": 7786, "436f6e74616374": 7787, "20637275697365": 7788, "20e286": 7789, "207269766572": 7790, "206c696b6573": 7791, "206f70706f73697465": 7792, "2050726976617465": 7793, "2048656c70": 7794, "20636c6f74686573": 7795, "20666f6f6473657276696365": 7796, "20696d6167696e65": 7797, "206d697374616b65": 7798, "206173736573736d656e74": 7799, "20686973746f726963": 7800, "206163636f6d706c6973686564": 7801, "2061737065637473": 7802, "20657374696d61746564": 7803, "20507261637469636573": 7804, "2069506f64": 7805, "2070756d706b696e": 7806, "206a75696365": 7807, "2064656c6963696f7573": 7808, "2063617375616c": 7809, "2049504f": 7810, "204265726e617264": 7811, "204b6e696768746c6579": 7812, "2073756363656564": 7813, "20456e7669726f6e6d656e74616c": 7814, "204972656c616e64": 7815, "206174686c6574": 7816, "204269736361796e65": 7817, "20c3": 7818, "20726976": 7819, "252e": 7820, "2e27": 7821, "2ee28099": 7822, "2e292e": 7823, "343030": 7824, "426f7468": 7825, "436f": 7826, "437572": 7827, "436f70797269676874": 7828, "447572696e67": 7829, "446f7567": 7830, "4576656e": 7831, "476574": 7832, "4c6561726e": 7833, "5353": 7834, "54776f": 7835, "5741": 7836, "57696c6c": 7837, "57415245": 7838, "626c6564": 7839, "636f6465": 7840, "6368657273": 7841, "6461": 7842, "64617465": 7843, "656c65": 7844, "676c": 7845, "676e": 7846, "6875": 7847, "696f74": 7848, "6c76": 7849, "6c6967687473": 7850, "6d61626c65": 7851, "6d6f6e64": 7852, "7261746564": 7853, "74696f6e": 7854, "756f7573": 7855, "77616e": 7856, "7961": 7857, "c2a9": 7858, "2074656172": 7859, "207472696573": 7860, "6865617374": 7861, "6572696573": 7862, "2073656e": 7863, "20736f75676874": 7864, "20776f6c66": 7865, "20636162696e": 7866, "69746c65": 7867, "6974696d617465": 7868, "6f7263": 7869, "697374657273": 7870, "2062696f": 7871, "2066696e676572": 7872, "20666f6c6b73": 7873, "2066697363616c": 7874, "2070616365": 7875, "2070657473": 7876, "207069746368": 7877, "20707573686564": 7878, "6f75726564": 7879, "65646c79": 7880, "206d6164": 7881, "206d6f6f64": 7882, "206d616a": 7883, "20696e6e6572": 7884, "61726f6e": 7885, "2064696e696e67": 7886, "6f6d79": 7887, "6f6d616e": 7888, "206c61756768": 7889, "206c696162696c697479": 7890, "207265686162": 7891, "726f7665": 7892, "726f6164": 7893, "20546179": 7894, "20546f6e79": 7895, "637473": 7896, "205350": 7897, "20536b": 7898, "2053706563": 7899, "2062656572": 7900, "206f6e676f696e67": 7901, "20666f7267": 7902, "20666f72636564": 7903, "204379": 7904, "2043616c6c": 7905, "2043617468": 7906, "20436f726e": 7907, "757261": 7908, "73656c6c": 7909, "207374696d": 7910, "2073746162": 7911, "20737475636b": 7912, "2073747265746368": 7913, "204d44": 7914, "204d45": 7915, "204d6574726f": 7916, "696c69": 7917, "69726d73": 7918, "2042617274": 7919, "2050616765": 7920, "205075626c": 7921, "2050616b697374616e": 7922, "2077656967687473": 7923, "7261696e": 7924, "20446f6c": 7925, "2044616c6c": 7926, "20446976": 7927, "20526f6e": 7928, "205261696e": 7929, "2046617374": 7930, "2046726564": 7931, "2046696e64": 7932, "20466f78": 7933, "204665646572616c": 7934, "2073656e64696e67": 7935, "207365676d656e74": 7936, "7269766572": 7937, "2048616e": 7938, "20487572": 7939, "20486f7065": 7940, "2064656c69676874": 7941, "204772617068": 7942, "204e79": 7943, "204554": 7944, "20457374": 7945, "20456e74": 7946, "204c6962": 7947, "204c61727279": 7948, "2065787465726e616c": 7949, "61696e7473": 7950, "2073686172": 7951, "6f7375726573": 7952, "204f7269": 7953, "206c657473": 7954, "206c656174686572": 7955, "206368616e6e656c73": 7956, "204a756e": 7957, "6768616e": 7958, "617074": 7959, "205574": 7960, "69706c": 7961, "20616476657274": 7962, "2061646d6974746564": 7963, "20656e61626c6573": 7964, "207065726d697373696f6e": 7965, "205374617274": 7966, "205374616469756d": 7967, "206d616e6970": 7968, "6f7264657273": 7969, "2072656372756974": 7970, "20756e77": 7971, "656e736573": 7972, "696e6b73": 7973, "206167656e63696573": 7974, "206f7665727768656c": 7975, "2061726d73": 7976, "6f6265": 7977, "636c75646573": 7978, "20636f617374": 7979, "203432": 7980, "207368656c": 7981, "20646573697265": 7982, "20666c6177": 7983, "2070726f766973696f6e": 7984, "2074726170706564": 7985, "5468726565": 7986, "2061637473": 7987, "207068696c6f73": 7988, "20726570616972": 7989, "20756e6465727374": 7990, "20416e696d": 7991, "20416e616c79": 7992, "2050726f76": 7993, "2050726f706572": 7994, "20726567756c6174696f6e73": 7995, "206174746163686564": 7996, "20416476657274": 7997, "204164766572746973696e67": 7998, "20426c75": 7999, "207472616e736974": 8000, "204275747465": 8001, "20466f726365": 8002, "2072657469726564": 8003, "206d6f6465": 8004, "63657279": 8005, "20646966666572656e636573": 8006, "6c616e6473": 8007, "2042656174": 8008, "204265666f7265": 8009, "206672616d65776f726b": 8010, "2076697369626c65": 8011, "2076697369746564": 8012, "636f6e64756374": 8013, "7468656c657373": 8014, "455245": 8015, "6f616473": 8016, "726963656c696e65": 8017, "2067656e657261746564": 8018, "70736f6e": 8019, "206272616b65": 8020, "207265636569766572": 8021, "206164766f63": 8022, "2070617373776f7264": 8023, "20676c75636f7365": 8024, "20696e74656e7365": 8025, "20696e76657374696e67": 8026, "6c69657273": 8027, "2031393939": 8028, "2043616e636572": 8029, "20506c616365": 8030, "206d61696e6c79": 8031, "207a616e616d69766972": 8032, "20696465616c": 8033, "206578706c61696e73": 8034, "20656e67616765": 8035, "204578706572": 8036, "2050686f6e65": 8037, "206f66666963657273": 8038, "20666561747572696e67": 8039, "20696e6469636174696e67": 8040, "2070726f6d7074": 8041, "2074726561746d656e7473": 8042, "20666f7265766572": 8043, "20436f7270": 8044, "495459": 8045, "20766f6c756d65": 8046, "61757261": 8047, "2063757473": 8048, "20616464726573736573": 8049, "206465736372696265": 8050, "20696e766f6c7665": 8051, "20436f6e74696e": 8052, "204d61726b6574": 8053, "6166657479": 8054, "20686f6c6473": 8055, "20656475636174696f6e616c": 8056, "207374726f6e676572": 8057, "205072696d65": 8058, "206d65617375726564": 8059, "2073756767657374696f6e73": 8060, "204d696e6e65736f7461": 8061, "20636f6e6365726e696e67": 8062, "207265706c61636564": 8063, "4f6e6365": 8064, "20636f6f6b696573": 8065, "206d697874757265": 8066, "2066756e6374696f6e616c": 8067, "20456469746f72": 8068, "20696d70726f76656d656e74": 8069, "6372697074": 8070, "206265686176696f72616c": 8071, "207265636f676e697a6564": 8072, "697665727365": 8073, "206c696674696e67": 8074, "20636c6f736574": 8075, "206379636c65": 8076, "2050617469656e74": 8077, "20626c6f636b73": 8078, "50726f66": 8079, "207175616c696679696e67": 8080, "20636f70797269676874": 8081, "204167656e74": 8082, "666c6f77": 8083, "20706572736f6e73": 8084, "53657074656d626572": 8085, "206472657373696e67": 8086, "2074616c656e7473": 8087, "61736b61": 8088, "206166666563746564": 8089, "204265726b656c6579": 8090, "20706c6561736564": 8091, "2072656c6967696f6e": 8092, "2077696c646c696665": 8093, "206c69746572616c6c79": 8094, "20436c65616e": 8095, "2061776172656e657373": 8096, "206a756d706564": 8097, "2061646d696e69737472": 8098, "2073706563746163": 8099, "20686f75736573": 8100, "2073796e7468": 8101, "20476f6c64656e": 8102, "2076656869636c6573": 8103, "2057696e63686573746572": 8104, "207375697461626c65": 8105, "20657261": 8106, "2045636f6e6f6d696373": 8107, "20696e697469617469766573": 8108, "20636f6d70617269736f6e": 8109, "20696e6372656469626c79": 8110, "207375627374616e7469616c6c79": 8111, "2045706973636f70616c": 8112, "2073756464656e6c79": 8113, "2073796d626f6c": 8114, "2041746c616e7461": 8115, "20617267756d656e74": 8116, "204d65726b656c": 8117, "20656e68616e6365": 8118, "206469736d697373": 8119, "206f646473": 8120, "20746f6d61746f6573": 8121, "2050726f74656374696f6e": 8122, "20696e65766974": 8123, "20616e7869657479": 8124, "207363686f6c6172": 8125, "206661766f7572697465": 8126, "6964656c696e6573": 8127, "2059616e6b656573": 8128, "207072657061726174696f6e": 8129, "20486967686c616e646572": 8130, "2042726f776e65": 8131, "20466f6f7462616c6c": 8132, "6c61686f6d61": 8133, "20437265646974": 8134, "20466573746976616c": 8135, "204c65776973": 8136, "206e65696768626f72686f6f64": 8137, "203f": 8138, "2ee280a6": 8139, "3533": 8140, "3636": 8141, "3838": 8142, "436172": 8143, "486572": 8144, "496e64": 8145, "4a6f686e": 8146, "4b41": 8147, "4c53": 8148, "4c6f6f6b": 8149, "4e54": 8150, "504d": 8151, "507265": 8152, "506c6179": 8153, "526563": 8154, "5456": 8155, "54756573646179": 8156, "54756265": 8157, "557365": 8158, "57656c636f6d65": 8159, "626c": 8160, "626f7273": 8161, "626f79": 8162, "626c6573": 8163, "63657273": 8164, "646573": 8165, "646f67": 8166, "65726572": 8167, "67616c": 8168, "6874": 8169, "686177": 8170, "697573": 8171, "6c616d": 8172, "6c696d": 8173, "6d6f6e74": 8174, "706f": 8175, "706174": 8176, "737765": 8177, "7470": 8178, "7461696c": 8179, "786963": 8180, "7a656e73": 8181, "20746970": 8182, "2074616374": 8183, "2074616e6b": 8184, "20617374": 8185, "65727473": 8186, "6572746564": 8187, "20736f75": 8188, "207369636b": 8189, "61747465726564": 8190, "20777261": 8191, "206f76656e": 8192, "206372616674": 8193, "20636f646573": 8194, "6f7261626c65": 8195, "697361": 8196, "697362": 8197, "20626573": 8198, "2062616374": 8199, "2062696c6c73": 8200, "2062656e6368": 8201, "20666f6f6c": 8202, "20666c6578": 8203, "2066756c66": 8204, "2070757265": 8205, "20746f77": 8206, "206d6963": 8207, "206d656e74": 8208, "206d6572696e677565": 8209, "6172726f77": 8210, "2064696365": 8211, "2064697274": 8212, "20647265616d73": 8213, "6963756c": 8214, "61736d": 8215, "61737465726e": 8216, "20686f726d": 8217, "20686f73706974": 8218, "206c6970": 8219, "73747265616d": 8220, "20726576656e756573": 8221, "206e6f7274": 8222, "2067726577": 8223, "20547275": 8224, "20546f776e": 8225, "65746974696f6e": 8226, "20534f": 8227, "2053617665": 8228, "20536f75746865726e": 8229, "2069736f6c": 8230, "20416363657373": 8231, "20414345": 8232, "2041494453": 8233, "20434c": 8234, "2043617264": 8235, "7572696f7573": 8236, "616479": 8237, "696d6f7265": 8238, "2073746162696c697479": 8239, "207374756e6e696e67": 8240, "204d69": 8241, "204d6f72": 8242, "204d616465": 8243, "696c7374": 8244, "696c6174696f6e": 8245, "2042697264": 8246, "2042757368": 8247, "2042616c74": 8248, "20426f776c": 8249, "2050616e": 8250, "20506179": 8251, "20506163": 8252, "2050617373": 8253, "20506f6c6c": 8254, "20505043": 8255, "20506f7273636865": 8256, "2050726963656c696e65": 8257, "207765697264": 8258, "20576179": 8259, "2070726f70": 8260, "20526170": 8261, "205269636b": 8262, "20466172": 8263, "20466967": 8264, "20465053": 8265, "206f72616e6765": 8266, "2073656d696e": 8267, "74686973": 8268, "204750": 8269, "204754": 8270, "20476172": 8271, "204e6f6e65": 8272, "204e6f7465": 8273, "204e4153": 8274, "204552": 8275, "2045766572": 8276, "204c697665": 8277, "72657361": 8278, "20726964": 8279, "20727572616c": 8280, "2073686f636b": 8281, "616e746564": 8282, "204f4b": 8283, "20616c697665": 8284, "20616c7465726e": 8285, "20706c617465": 8286, "20706c61696e": 8287, "206c6567656e64": 8288, "206368616e6e656c": 8289, "204a617661": 8290, "20646f63746f7273": 8291, "6167657273": 8292, "20776f727279": 8293, "207573616765": 8294, "207570636f6d696e67": 8295, "6f67656e": 8296, "204b656e6e": 8297, "206469736162696c697479": 8298, "736f6c65": 8299, "205374616765": 8300, "203337": 8301, "72757074696f6e": 8302, "6e6565": 8303, "2056657273": 8304, "207061727469616c6c79": 8305, "76656c616e64": 8306, "2073706f6b65": 8307, "6f62c3a9": 8308, "20737065656368": 8309, "206b6e6f636b": 8310, "20726f77": 8311, "20726f6f6b": 8312, "20726f6f66": 8313, "206163636f7264": 8314, "20636f6f7264696e": 8315, "69616e636573": 8316, "20696e64656564": 8317, "20626c69747a": 8318, "2073796e74": 8319, "2061646473": 8320, "2048656164": 8321, "67657473": 8322, "656e646172": 8323, "5468616e6b": 8324, "207265706f72746572": 8325, "20737570706c69657273": 8326, "207265676973746572": 8327, "2072656d61726b": 8328, "6e65726779": 8329, "20426c6f6f64": 8330, "20596f7554756265": 8331, "207472616e7370": 8332, "203731": 8333, "20383030": 8334, "20726571756972696e67": 8335, "206d656d6f72696573": 8336, "206d6f64656d": 8337, "20656e64696e67": 8338, "206272616e6368": 8339, "206c697374656e696e67": 8340, "2061757468656e746963": 8341, "6f75726e616d656e7473": 8342, "6666656374697665": 8343, "6f756e6365": 8344, "20646566696e6564": 8345, "6279746573": 8346, "207265636f72646564": 8347, "20516964616e": 8348, "6172736177": 8349, "20706572666f726d696e67": 8350, "206469736372696d696e6174696f6e": 8351, "203032": 8352, "203033": 8353, "20636c617373726f6f6d": 8354, "205368656570": 8355, "20496e6469616e73": 8356, "20436f6e66": 8357, "455353": 8358, "206f70657261746564": 8359, "206372696d": 8360, "494e45": 8361, "20696e74656e74696f6e": 8362, "20696e74656c6c65637475616c": 8363, "20636f6e74726f76657273": 8364, "20416c6c69616e6365": 8365, "6f6b696e67": 8366, "2053636f74": 8367, "2076656e64": 8368, "2031393938": 8369, "2068756d6f72": 8370, "20636f6e6669726d": 8371, "205370616365": 8372, "2053706f727473": 8373, "20537069726974": 8374, "20736f63636572": 8375, "206b65657073": 8376, "207a6f6e65": 8377, "207a6f6e6573": 8378, "656c736f6e": 8379, "206170706c696361626c65": 8380, "20706f70756c6174696f6e73": 8381, "204d61726961": 8382, "204d61727368": 8383, "2042726164": 8384, "207370656369616c697374": 8385, "206c696d697473": 8386, "6f6e796d": 8387, "20686f737473": 8388, "206661766f7269746573": 8389, "2073656c656374696e67": 8390, "2062656e6566696369616c": 8391, "20656d706c6f796d656e74": 8392, "20627265616b66617374": 8393, "2053757070": 8394, "206265686176696f7273": 8395, "494348": 8396, "207374726f6e676c79": 8397, "20446f6e6e6965": 8398, "20627579696e67": 8399, "20696e697469616c6c79": 8400, "2063756c7475726573": 8401, "205065727279": 8402, "2073657061726174656c79": 8403, "416e6f74686572": 8404, "204e656564": 8405, "20696d7061637473": 8406, "206d65726765": 8407, "20706f6c6974696373": 8408, "207061726b73": 8409, "6164646c65": 8410, "20696e766573746967617465": 8411, "206162736f72": 8412, "2064696773": 8413, "2041666768616e": 8414, "7572746c65": 8415, "2031393838": 8416, "206879706572": 8417, "20686f6c6573": 8418, "20636f6d6d6974746565": 8419, "2053616d75656c": 8420, "20414e59": 8421, "20476c6f62616c": 8422, "2043616e616469616e": 8423, "20636f6e73697374656e74": 8424, "20636f6e73697374656e746c79": 8425, "2061666661697273": 8426, "20657865637574697665": 8427, "20736574746c6564": 8428, "4e657773": 8429, "2070726f6772657373697665": 8430, "206d6f756e7461696e": 8431, "20436c656172": 8432, "204c616f62c3a9": 8433, "206a7564676d656e74": 8434, "20626c656e64": 8435, "207265666572656573": 8436, "206f62736572766564": 8437, "206368616c6c656e67696e67": 8438, "204144414d": 8439, "207061747465726e73": 8440, "20636f6e736572766174697665": 8441, "20616c6c65676174696f6e73": 8442, "20707261796572": 8443, "205365637572697479": 8444, "696e636970616c": 8445, "2063617465676f72696573": 8446, "6c6f6f6b696e67": 8447, "206c696b6564": 8448, "20436f6e6772657373": 8449, "2074656c6570686f6e65": 8450, "467269646179": 8451, "206c6963656e736564": 8452, "20496e766573746d656e74": 8453, "207465616d6d617465": 8454, "4f5645": 8455, "20636f6e766572736174696f6e": 8456, "20737570706c696573": 8457, "206163636f6d706c697368": 8458, "205472656e6473": 8459, "206166666f726461626c65": 8460, "20446f776e6c6f6164": 8461, "20636f6c6c656167756573": 8462, "205374616e64617264": 8463, "206172726573746564": 8464, "20496e647573747279": 8465, "20737566666572696e67": 8466, "20436f6c6c696e73": 8467, "206d6f6e69746f72696e67": 8468, "4461766964": 8469, "20636f6e7665727473": 8470, "756c6c6574696e": 8471, "206574686e6963": 8472, "20546f74616c": 8473, "2070726576656e7473": 8474, "206e756d65726f7573": 8475, "50656f706c65": 8476, "20746973737565": 8477, "20646f776e746f776e": 8478, "20656c696769626c65": 8479, "2059656168": 8480, "205461796c6f72": 8481, "2044616c6c6173": 8482, "206964": 8483, "206060": 8484, "2928": 8485, "3538": 8486, "417265": 8487, "417474": 8488, "427261": 8489, "4542": 8490, "4844": 8491, "48617665": 8492, "4941": 8493, "4c6f636174696f6e": 8494, "5075626c6973686564": 8495, "536d": 8496, "53617665": 8497, "544d": 8498, "547261": 8499, "554354": 8500, "566964656f": 8501, "576564": 8502, "6161": 8503, "626c696e67": 8504, "636f6e73": 8505, "646973": 8506, "65656e": 8507, "656374696f6e": 8508, "6572657374": 8509, "66657273": 8510, "6b696e64": 8511, "6d6c": 8512, "6d61696c": 8513, "6f76657273": 8514, "6f696473": 8515, "706f6c": 8516, "706572736f6e": 8517, "70656e73697665": 8518, "72616e7473": 8519, "736974": 8520, "756374696f6e": 8521, "797065": 8522, "c584": 8523, "696e7374": 8524, "2074686572617079": 8525, "61746f": 8526, "20776f756e64": 8527, "206f6b6179": 8528, "2063726f776e": 8529, "6f7261": 8530, "6973616e": 8531, "20626572": 8532, "2062616e6b73": 8533, "2062756e6368": 8534, "20666564": 8535, "696e67657273": 8536, "20706f727473": 8537, "20706f77657273": 8538, "2070757368696e67": 8539, "6f756368": 8540, "616e696e67": 8541, "616c69": 8542, "616c656d": 8543, "206d617465": 8544, "206d696c64": 8545, "617269": 8546, "61726765": 8547, "2064656e74": 8548, "20686f7273": 8549, "2068696464656e": 8550, "206c756e6368": 8551, "206c6f7564": 8552, "73746174696f6e": 8553, "2072656170": 8554, "2072656465": 8555, "206e757273": 8556, "206e75636c656172": 8557, "206e6f626f6479": 8558, "20546f6e": 8559, "6574696373": 8560, "2053656e74": 8561, "2053686572": 8562, "20536176": 8563, "205377656574": 8564, "7574696e67": 8565, "20697363": 8566, "2079617264": 8567, "6f74746f6e": 8568, "204162797373": 8569, "2043726f776e": 8570, "20436f70797269676874": 8571, "6f7761": 8572, "75727279": 8573, "6365616e": 8574, "616461": 8575, "696d6d6572": 8576, "6967696f7573": 8577, "6368726f6e": 8578, "207570706572": 8579, "2073746f6e65": 8580, "6f6c766573": 8581, "204d75": 8582, "204d7572": 8583, "204d6f746f72": 8584, "204d757365756d": 8585, "204245": 8586, "20426f6e": 8587, "20426f77": 8588, "20426f73": 8589, "20426f79": 8590, "204275726e": 8591, "2050696374": 8592, "72617065": 8593, "6b656c65": 8594, "6966696573": 8595, "20446572": 8596, "20446172": 8597, "2052756e": 8598, "2046696c": 8599, "20466f6c6c6f77": 8600, "204661726d": 8601, "20466973686572": 8602, "20636f6e76": 8603, "20636f6e76656e74696f6e": 8604, "207365617473": 8605, "6f72656e": 8606, "20486f72": 8607, "7070657273": 8608, "69676874657273": 8609, "756e6573": 8610, "20476f7264": 8611, "656d696e": 8612, "656d616e": 8613, "204c6974746c65": 8614, "204c61626f72": 8615, "204c4344": 8616, "2076617374": 8617, "20726174696e67": 8618, "2032303230": 8619, "204f78": 8620, "20706c61746573": 8621, "20706c7567": 8622, "2063686970": 8623, "206368616d70696f6e73686970": 8624, "204a6163": 8625, "204a6f6273": 8626, "204a6f7264616e": 8627, "206162757365": 8628, "20636f6d706f6e656e74": 8629, "206a6572": 8630, "206d657265": 8631, "206e657574": 8632, "206e657572": 8633, "206f75746572": 8634, "61636f6e": 8635, "706c696e67": 8636, "706c6564": 8637, "706c7573": 8638, "696e6475": 8639, "6f6779": 8640, "6f676574": 8641, "697a617264": 8642, "204b68": 8643, "204b6f7265": 8644, "204b6e6f77": 8645, "20646973686573": 8646, "2053747269": 8647, "72756365": 8648, "204368616e6e656c": 8649, "6f7264656e": 8650, "2056616e6465726b697474656e": 8651, "6f776e657273": 8652, "6f6e6461": 8653, "6f6e6473": 8654, "20756e6365727461696e": 8655, "20736372": 8656, "657276696e67": 8657, "206167656e74": 8658, "207370696e": 8659, "204974616c79": 8660, "2061726d": 8661, "206865726974616765": 8662, "20726f6c6573": 8663, "20726f6c6c696e67": 8664, "20616363756d": 8665, "20636f636b": 8666, "20696e646578": 8667, "20696d70616972": 8668, "206465736b": 8669, "616e676f": 8670, "20666c6f6f64": 8671, "20666c6176": 8672, "204865617274": 8673, "20526576": 8674, "63657373696e67": 8675, "20636f6c6f7572": 8676, "20636f6c6c65676573": 8677, "20756e64657274": 8678, "2072656c6961626c65": 8679, "2050726f706f73": 8680, "20436f6d706c657465": 8681, "20536561": 8682, "20677569746172": 8683, "2041646d696e697374": 8684, "616e7961": 8685, "626c65656473": 8686, "73686f7073": 8687, "20617373756d65": 8688, "20696e7374616e74": 8689, "20696e737472756374696f6e": 8690, "61746879": 8691, "2066696e64696e6773": 8692, "2077696e6573": 8693, "2053686f70": 8694, "2062656c6f6e67": 8695, "206865616c746863617265": 8696, "20696e74657272757074": 8697, "6c616e646f": 8698, "20416c616e": 8699, "20416c616e7961": 8700, "2070726f6772616d6d61626c65": 8701, "206c69737473": 8702, "756767": 8703, "20646566696e65": 8704, "2064656661756c74": 8705, "204672616d65776f726b": 8706, "2063656e74657273": 8707, "6265696e67": 8708, "205175616c697479": 8709, "2064697374757262": 8710, "6c6573736c79": 8711, "206f70706f736564": 8712, "20666f726d616c": 8713, "206272616e6473": 8714, "20436f6e6e": 8715, "2054686572656166746572": 8716, "20686561646564": 8717, "20696e7472": 8718, "6c697573": 8719, "206661637473": 8720, "20536369656e74": 8721, "2076696577657273": 8722, "6f666f637573": 8723, "20636f6e666c6963": 8724, "206f7267616e697a6564": 8725, "20636c61696d6564": 8726, "20736b79": 8727, "204d61796265": 8728, "6f726d6f7573": 8729, "207a6970": 8730, "207061737461": 8731, "206170706c6963616e7473": 8732, "63686573747261": 8733, "7669726f6e6d656e7473": 8734, "2062656c6965766564": 8735, "2042726964": 8736, "20636f6e7374616e74": 8737, "20636f6e7374616e746c79": 8738, "20416d79": 8739, "20696e6469636174696f6e": 8740, "20436f6c756d62": 8741, "20576974686f7574": 8742, "20616c6f6e6773696465": 8743, "2061636365737369626c65": 8744, "32303032": 8745, "32303039": 8746, "2064656d6f6372616379": 8747, "206169726372616674": 8748, "206d6f6d656e7473": 8749, "206e6561726279": 8750, "20436f727073": 8751, "494345": 8752, "50686f746f": 8753, "20726f756e6473": 8754, "20656c656374726f6e6963": 8755, "6f6c6563": 8756, "756b6173": 8757, "2070757263686173696e67": 8758, "20737570657276": 8759, "20636f6e7472696275746564": 8760, "20626c6f6767657273": 8761, "20726561736f6e61626c65": 8762, "206578616d696e6174696f6e": 8763, "207479706963616c": 8764, "2068756e67": 8765, "2076696f6c6174696f6e73": 8766, "206d65737361676573": 8767, "20646561746873": 8768, "20736f6c6469657273": 8769, "20636f6d6d756e69636174696f6e73": 8770, "206669746e657373": 8771, "206c6174746572": 8772, "20656e737572696e67": 8773, "20617474656e64696e67": 8774, "20707265706172696e67": 8775, "20646f6d6573746963": 8776, "20576f726b696e67": 8777, "2055706f6e": 8778, "2066696e697368696e67": 8779, "20636173736574746573": 8780, "2073636f726573": 8781, "7365637572697479": 8782, "20696d6d756e697479": 8783, "20696d6d756e65": 8784, "2072616e6b696e67": 8785, "2064726573736573": 8786, "204972617169": 8787, "20636f6d706c696d656e74": 8788, "207665726273": 8789, "204469726563746f7279": 8790, "2072657665616c": 8791, "20646570656e6473": 8792, "206d616e75666163747572696e67": 8793, "206372617a79": 8794, "2062616e6b696e67": 8795, "20436c6576656c616e64": 8796, "205370656564": 8797, "204a61636b736f6e": 8798, "2061776172646564": 8799, "204375727279": 8800, "20726567697374726174696f6e": 8801, "2064726f70706564": 8802, "20427579": 8803, "20636f6e736572766174696f6e": 8804, "206d6561737572656d656e7473": 8805, "2063687269737469616e73": 8806, "2070726563697365": 8807, "20636f6e74696e756f7573": 8808, "436f6e74696e": 8809, "2074616c656e746564": 8810, "20706c6174666f726d73": 8811, "20506c616e6e696e67": 8812, "756d6e69": 8813, "2053756d6d6572": 8814, "20686973746f726963616c": 8815, "7370656564": 8816, "205371756164": 8817, "20537175617265": 8818, "2073706f6e736f7273": 8819, "20617474726962757465": 8820, "2061747472696275746573": 8821, "20636f6e74726f6c6c6572": 8822, "20636f6e74726f6c6c6564": 8823, "2070726f7370656374": 8824, "206f7574646f6f72": 8825, "20656d6f74696f6e616c": 8826, "20496d70616374": 8827, "20696c6c7573747261746564": 8828, "2043616d706169676e73": 8829, "20636f6e66696775726174696f6e": 8830, "204d656d6f7269616c": 8831, "2076756c6e65726162696c697479": 8832, "2063686169726d616e": 8833, "2070757a7a6c65": 8834, "2044656d6f6372617473": 8835, "20617373656d626c79": 8836, "2072656379636c696e67": 8837, "2070696c6f74": 8838, "20706f636b657473": 8839, "207072696e6369706c6573": 8840, "20617263686974656374757265": 8841, "6f74686572617079": 8842, "204f7267616e6963": 8843, "20546f6261676f": 8844, "20454553746f72": 8845, "204a656e6e69666572": 8846, "206c6971756964": 8847, "20636f6e7374727563746564": 8848, "20506f72747567616c": 8849, "204d6f756e7461696e": 8850, "20636f6e74656d706f72617279": 8851, "206672616e6368697365": 8852, "206e6577737061706572": 8853, "20506572666f726d616e6365": 8854, "20746f6d6f72726f77": 8855, "205465726d73": 8856, "4d65646961506f7374": 8857, "20656d626f64696d656e74": 8858, "206a6577656c7279": 8859, "2070726f706f7274696f6e": 8860, "206162756e64616e6365": 8861, "446f7567616c6c": 8862, "20436f726e796e": 8863, "2073706563746163756c6172": 8864, "2042616c74696d6f7265": 8865, "203b": 8866, "203c": 8867, "2d2f": 8868, "343730": 8869, "3637": 8870, "3934": 8871, "456172": 8872, "4643": 8873, "466967": 8874, "4772": 8875, "4843": 8876, "4850": 8877, "4b65": 8878, "4d43": 8879, "4d616e79": 8880, "4e4e": 8881, "4e53": 8882, "5054": 8883, "5254": 8884, "537065": 8885, "534150": 8886, "616974": 8887, "617564": 8888, "6261": 8889, "62656c": 8890, "62697473": 8891, "62726174696f6e": 8892, "626c6f636b": 8893, "63616c": 8894, "63696573": 8895, "636f756e74": 8896, "63616c6c6564": 8897, "6479": 8898, "67676c65": 8899, "6879": 8900, "686172": 8901, "6a61": 8902, "6a616e": 8903, "6d616e64": 8904, "6d6f64": 8905, "6d697473": 8906, "727573": 8907, "726974696f6e": 8908, "726f6e73": 8909, "73637265656e": 8910, "756768": 8911, "776173": 8912, "77696c6c": 8913, "776175": 8914, "786964": 8915, "7a696c": 8916, "20746f75726e616d656e7473": 8917, "206178": 8918, "6f6e746f": 8919, "657267": 8920, "65726b": 8921, "20736b65": 8922, "2073636c65726f736973": 8923, "2077696e67": 8924, "20776574": 8925, "2063726f": 8926, "6f726d73": 8927, "65736973": 8928, "65736563": 8929, "656e6e65": 8930, "6973657273": 8931, "2062616e6473": 8932, "2066617265": 8933, "20666f78": 8934, "206675636b": 8935, "20706f64": 8936, "207069616e6f": 8937, "616e696564": 8938, "616e7768696c65": 8939, "206d616e64": 8940, "2064696c": 8941, "2064757374": 8942, "20646174696e67": 8943, "206469766964": 8944, "20647269766573": 8945, "6173686573": 8946, "6f6d6f7265": 8947, "2074686f75": 8948, "2074686f726f756768": 8949, "6c6c6564": 8950, "206c6f6c": 8951, "206c6965": 8952, "206c616e65": 8953, "73746565": 8954, "206e616e": 8955, "20494d": 8956, "20496f7761": 8957, "20676f6e6e61": 8958, "205452": 8959, "2054656e": 8960, "20546178": 8961, "20537465726e": 8962, "2053616c74": 8963, "2053454f": 8964, "20536b79": 8965, "20536166657479": 8966, "2062656c6c": 8967, "6f746f73": 8968, "696d6d696e67": 8969, "6f6c666572": 8970, "204d696c6c696f6e": 8971, "204d4241": 8972, "204d6572696e677565": 8973, "696c6f6d6574": 8974, "20424d": 8975, "204259": 8976, "2042616e": 8977, "204275636b": 8978, "2042616279": 8979, "2050726f6d": 8980, "2050616964": 8981, "72616964": 8982, "205752": 8983, "205757": 8984, "2057726974696e67": 8985, "2070726f76656e": 8986, "20617465": 8987, "2061746f6d": 8988, "2052616365": 8989, "20526f766572": 8990, "2052757468": 8991, "2046756e": 8992, "2046697265": 8993, "20466c6574": 8994, "20636f6e736f6c65": 8995, "2073656374696f6e73": 8996, "72696f72": 8997, "20486f6e": 8998, "2048656e": 8999, "2048617274": 9000, "2048616e64": 9001, "2048656e73": 9002, "6967687468": 9003, "6f70617264": 9004, "6973746f72": 9005, "204e6f6e": 9006, "204e6174696f6e73": 9007, "204e6176": 9008, "204e65766572": 9009, "204556": 9010, "20456d616e": 9011, "20455041": 9012, "20456e65726779": 9013, "204c696e64": 9014, "2076656e74": 9015, "20657863657373": 9016, "2065786861": 9017, "656c696e67": 9018, "656c6564": 9019, "656c6c65": 9020, "20616c74": 9021, "20616c746572": 9022, "20636869636b656e": 9023, "20646f7a656e73": 9024, "20636f6d70726f6d": 9025, "20636f6d70616374": 9026, "616772617068": 9027, "20776f726d": 9028, "7572656175": 9029, "206d65616c73": 9030, "20636c6f736564": 9031, "206164756c74": 9032, "2061646d6974": 9033, "206164657175": 9034, "20746561": 9035, "696e646564": 9036, "697a7a": 9037, "20656e6f726d6f7573": 9038, "20656e7669726f6e6d656e7473": 9039, "20646973706f73": 9040, "2070657263657074696f6e": 9041, "2072656369706573": 9042, "20776f726b706c616365": 9043, "20616e796d6f7265": 9044, "20756e6966": 9045, "20756e636c65": 9046, "207363726577": 9047, "726573736564": 9048, "2061676772657373697665": 9049, "20617272": 9050, "206172626974726174696f6e": 9051, "20726f6f74": 9052, "20616d62": 9053, "20353530": 9054, "20696e646570656e64": 9055, "7765616c7468": 9056, "20526578": 9057, "20747261696c6572": 9058, "206576657279626f6479": 9059, "2062757a7a": 9060, "20656d7074": 9061, "207265706f7274657273": 9062, "20736572766573": 9063, "20556e666f7274756e6174656c79": 9064, "20737570706f7274657273": 9065, "20656e7472696573": 9066, "20726567756c6174696f6e": 9067, "6f737369626c65": 9068, "496e7465726e": 9069, "20536563726574": 9070, "2073656375726564": 9071, "2072656d6f76": 9072, "20617373657473": 9073, "2061737369737473": 9074, "2061737361756c74": 9075, "207472616e736d6974": 9076, "203732": 9077, "20373030": 9078, "20466f726d6174": 9079, "20536869": 9080, "205368697070696e67": 9081, "20706572736f6e616c697479": 9082, "206f626c6967": 9083, "20696e746572616374": 9084, "617a7a79": 9085, "61686f6f": 9086, "2070726f6772616d6d696e67": 9087, "202a7c7c": 9088, "2073696d706c": 9089, "20776f726c6477696465": 9090, "206d6564616c": 9091, "696574696573": 9092, "20646966666572656e746c79": 9093, "2070726f66696c6573": 9094, "57686f": 9095, "2065766f6c7574696f6e": 9096, "20686172646572": 9097, "206665776572": 9098, "206f70706f6e656e7473": 9099, "61696d73": 9100, "20617661696c6162696c697479": 9101, "20627261636b": 9102, "20496e64656564": 9103, "20436f6e636572": 9104, "20726573756c74696e67": 9105, "203a7c7c": 9106, "696b6573": 9107, "207075626c69636174696f6e": 9108, "20617070726f6163686573": 9109, "20636f6e74726f6c6c696e67": 9110, "6c69616d656e74": 9111, "6f6b656e": 9112, "206e6967687473": 9113, "206c65676974696d617465": 9114, "206c657474696e67": 9115, "206566666563746976656c79": 9116, "206566666563746976656e657373": 9117, "7261706573": 9118, "20736f6c7665": 9119, "20616e6e6976657273617279": 9120, "206964656e74696679696e67": 9121, "616e6e79": 9122, "656e6e6973": 9123, "2074656d706f72617279": 9124, "20656e676167696e67": 9125, "204578706c": 9126, "207061726164": 9127, "206c616e6473": 9128, "206f666669636572": 9129, "206c617779": 9130, "796e6e": 9131, "207374727567676c65": 9132, "32303038": 9133, "207375636365737366756c6c79": 9134, "20617574686f726974696573": 9135, "20617574686f72697a6174696f6e": 9136, "53746172": 9137, "20706572736f6e616c697a6564": 9138, "73637269": 9139, "495448": 9140, "2054726164": 9141, "205472756d70": 9142, "204d6347": 9143, "49534143": 9144, "20766572736174": 9145, "2076657273696f6e73": 9146, "206661696c696e67": 9147, "6f676e6974697665": 9148, "2077616c6b6564": 9149, "20696e7465726e73686970": 9150, "206c616964": 9151, "2073756d6d617279": 9152, "207375676765737473": 9153, "204170706c6963": 9154, "617465676f7279": 9155, "696e636f6d65": 9156, "414353": 9157, "20646973636c6f736564": 9158, "20416374697665": 9159, "2057696c6c69616d": 9160, "20656c73657768657265": 9161, "207265706c6963": 9162, "206e6174696f6e616c6c79": 9163, "20646966666963756c7479": 9164, "207574696c697479": 9165, "20666f6f74616765": 9166, "20666f6f747072696e74": 9167, "20636f6e736964657261626c65": 9168, "207269736b73": 9169, "206c6966657374796c65": 9170, "2063796c": 9171, "206379626572": 9172, "20696e6e6f63": 9173, "206e65636573736172696c79": 9174, "20636f6e7461696e696e67": 9175, "2050726f6475637473": 9176, "72696d70": 9177, "20737065616b657273": 9178, "20776964656c79": 9179, "20696e6a75726564": 9180, "205573696e67": 9181, "20746f757269736d": 9182, "20636f6c6f7266756c": 9183, "207375626a65637473": 9184, "20657870726573736564": 9185, "20657863657074696f6e": 9186, "206368656d6963616c": 9187, "207472696265": 9188, "4265666f7265": 9189, "206f7264657273": 9190, "2068617276657374": 9191, "206669676874696e67": 9192, "206578656375746564": 9193, "636f6e74656e74": 9194, "206d6973636f6e64756374": 9195, "20546f72726573": 9196, "20636c756273": 9197, "207265666c65637473": 9198, "20696e737472756d656e74": 9199, "20436861726c6965": 9200, "206361727279696e67": 9201, "206669726d6c79": 9202, "204d6163446f7567616c6c": 9203, "20726f6c6c6564": 9204, "2062656174656e": 9205, "6170616e657365": 9206, "206a75646765": 9207, "20646565706c79": 9208, "2050524f44": 9209, "20706172746e657273686970": 9210, "20696d706c656d656e746564": 9211, "206f627461696e6564": 9212, "2044657369676e6572": 9213, "4f63746f626572": 9214, "20636f6c6c61626f726174697665": 9215, "706f696e7473": 9216, "20657870616e64696e67": 9217, "206f776e657273686970": 9218, "2073757270726973696e67": 9219, "206d656368616e6963616c": 9220, "206e65696768626f7273": 9221, "206f70706f736974696f6e": 9222, "2061646a7573746d656e7473": 9223, "207363656e6172696f": 9224, "206f6276696f75736c79": 9225, "54656368": 9226, "205374657068656e": 9227, "2067616d696e67": 9228, "20416c6578616e646572": 9229, "2064656d6f6e737472617465": 9230, "20737472617465676963": 9231, "204665617475726573": 9232, "204a6f6e6168": 9233, "2054686f6d70736f6e": 9234, "7669736f72": 9235, "20526164696f": 9236, "207472616e73706f72746174696f6e": 9237, "20696e6372656469626c65": 9238, "2044656e766572": 9239, "206576616c756174696f6e": 9240, "2074757262696e6573": 9241, "206578636c7573697665": 9242, "206365727469666963": 9243, "2064616e6765726f7573": 9244, "20416e746f6e": 9245, "20636f6d70726973696e67": 9246, "6f6e65726b6f": 9247, "20736f6d657768657265": 9248, "20467269656462657267": 9249, "20736576656e7468": 9250, "204a6577697368": 9251, "2073747275637475726573": 9252, "204f6b6c61686f6d61": 9253, "20726567756c61746f7279": 9254, "20756c747261636170616369746f7273": 9255, "2052757467657273": 9256, "206f7269656e746174696f6e": 9257, "20486973746f7279": 9258, "204f6c796d70696373": 9259, "2075706772616465": 9260, "206170706f696e746d656e74": 9261, "2073706f6b65736d616e": 9262, "206d6f646572617465": 9263, "20436f6e6e656374": 9264, "20636f72726573706f6e64696e67": 9265, "20756e6578": 9266, "2073756273657175656e74": 9267, "20416c746f6f6e61": 9268, "20636f6d706c696361746564": 9269, "476f6c64656e": 9270, "20636f6e76696e636564": 9271, "20456c6576656e": 9272, "20557262616e": 9273, "20656e61626c696e67": 9274, "20726563697069656e7473": 9275, "20456e68616e636564": 9276, "20696e657870656e73697665": 9277, "205472696e69646164": 9278, "204265726e617264696e6f": 9279, "2050616369666963": 9280, "206372696d696e616c": 9281, "2041666768616e697374616e": 9282, "41747461636b": 9283, "206973637369": 9284, "65736563616b65": 9285, "7374656567": 9286, "20466c657463686572": 9287, "2050524f44554354": 9288, "20726f6d": 9289, "21292e": 9290, "3534": 9291, "353530": 9292, "363030": 9293, "3737": 9294, "3834": 9295, "4273": 9296, "426563": 9297, "42756c6c6574696e": 9298, "4353": 9299, "446179": 9300, "446f776e": 9301, "4547": 9302, "456c": 9303, "466f637573": 9304, "4d6172": 9305, "506c": 9306, "61697265": 9307, "62616c": 9308, "627073": 9309, "636172": 9310, "6466": 9311, "64616c65": 9312, "6679": 9313, "66696e": 9314, "666f6c": 9315, "66726f6e74": 9316, "6769616e": 9317, "6861726d": 9318, "6a69": 9319, "6a70": 9320, "6c697374": 9321, "6c6f6e67": 9322, "6c6177": 9323, "6d616b696e67": 9324, "6e6577": 9325, "73756d": 9326, "74616765": 9327, "7561": 9328, "75696e65": 9329, "7a6572": 9330, "c3a5": 9331, "2074696e": 9332, "207475726e696e67": 9333, "2061766572": 9334, "696e656e74": 9335, "72656e64": 9336, "7265616c": 9337, "657269616c": 9338, "6572616c73": 9339, "2073616e": 9340, "2073657373696f6e73": 9341, "6174657273": 9342, "206361746572": 9343, "20636f756e63696c": 9344, "20636f6f706572": 9345, "20636f74746f6e": 9346, "69746973": 9347, "6974617269616e": 9348, "6f72696f7573": 9349, "656e657373": 9350, "69736b": 9351, "69736174696f6e73": 9352, "20627572": 9353, "2062616b696e67": 9354, "2062617474": 9355, "20626f6f6d": 9356, "2062696e617279": 9357, "20626f72646572": 9358, "2062696e6765": 9359, "206674": 9360, "20666f6e74": 9361, "20667275697473": 9362, "696e67746f6e": 9363, "2070696c6c": 9364, "2070696e6b": 9365, "20706b67": 9366, "6f75766572": 9367, "6f7573746f6e": 9368, "6564646564": 9369, "206d61696c": 9370, "206d6f6c6563": 9371, "2064696d": 9372, "2064657373": 9373, "6c657465": 9374, "6c656d616e": 9375, "2068696e74": 9376, "2068697474696e67": 9377, "2068696b696e67": 9378, "207468726f7773": 9379, "6c6c6f": 9380, "656e7468": 9381, "206c616b65": 9382, "73746564": 9383, "7374616c": 9384, "2072656c79": 9385, "2072657665727365": 9386, "726f63": 9387, "726f67": 9388, "726f6f6d73": 9389, "206e6974": 9390, "206e6963": 9391, "2065617365": 9392, "20656c6576": 9393, "20656c646572": 9394, "2067656e74": 9395, "20676f64": 9396, "2054726f": 9397, "205472656174": 9398, "2054656c6c": 9399, "2054697073": 9400, "205465727279": 9401, "204168": 9402, "20416374696f6e": 9403, "20416273": 9404, "20666f72756d": 9405, "20666f72756d73": 9406, "20436f75": 9407, "20436179": 9408, "20436f6e64": 9409, "2043726974": 9410, "2043726f7373": 9411, "2043616d6572": 9412, "20434141": 9413, "75726779": 9414, "20737461636b": 9415, "2073746174696f6e73": 9416, "207374616d70": 9417, "207374617473": 9418, "204d6f73": 9419, "204d616b696e67": 9420, "204d6f726d": 9421, "69727473": 9422, "20426c65": 9423, "20426f65": 9424, "20424d49": 9425, "205045": 9426, "20506564": 9427, "20506f696e74": 9428, "20507379": 9429, "20686561746564": 9430, "20323530": 9431, "2057616c74": 9432, "20574d53": 9433, "2057415252": 9434, "2044616d": 9435, "2044616b": 9436, "204469636b": 9437, "2044756e6765": 9438, "20524f": 9439, "20526f77": 9440, "20526976657273": 9441, "20466174": 9442, "2046616972": 9443, "20466f637573": 9444, "204672657368": 9445, "20636f6e636c75646564": 9446, "20486974": 9447, "20486179": 9448, "2054686561747265": 9449, "746861": 9450, "6d656e746961": 9451, "6573746564": 9452, "6f70686572": 9453, "61626f7574": 9454, "2047617279": 9455, "204e6963": 9456, "204e656c736f6e": 9457, "20457373": 9458, "204c49": 9459, "204c74": 9460, "204c6f6f6b": 9461, "204c756b6173": 9462, "20766974": 9463, "2076696272": 9464, "2076696e74616765": 9465, "20657869737473": 9466, "2072616e6b73": 9467, "70656c": 9468, "71756972": 9469, "71756f7465": 9470, "20737566": 9471, "207368697073": 9472, "204f4e": 9473, "204f62656f": 9474, "206c656166": 9475, "2063686f7365": 9476, "61737473": 9477, "204a6f68": 9478, "204a617a7a": 9479, "2061627374": 9480, "20636f6d706574696e67": 9481, "206a65": 9482, "616b6c6579": 9483, "69706f6c6172": 9484, "66656374696f6e73": 9485, "20736176696e67": 9486, "20636c6970": 9487, "2075706c6f6164": 9488, "616368656c": 9489, "636c617373": 9490, "204b6f6e65726b6f": 9491, "205468696e6773": 9492, "6974656d656e74": 9493, "2064697363726574": 9494, "7562626c65": 9495, "207065726365": 9496, "207065726d616e": 9497, "69636b696e67": 9498, "2053746f7265": 9499, "207265736964656e74": 9500, "204368616e6765": 9501, "204368696566": 9502, "206e6577657374": 9503, "205669636b": 9504, "2056696c6c616765": 9505, "207265636f6e": 9506, "20726563616c6c": 9507, "20616e79626f6479": 9508, "20756e636f6d": 9509, "207363616e": 9510, "206861646e": 9511, "696e6b696e67": 9512, "206167696e67": 9513, "206167726963": 9514, "2073706f": 9515, "204974656d73": 9516, "206f76657273": 9517, "2074726164656d": 9518, "6f6c6473": 9519, "6f766174696f6e": 9520, "20636f6163686573": 9521, "69616e61": 9522, "20626c6573736564": 9523, "20696d706f737369626c65": 9524, "20646573657274": 9525, "206e6f697365": 9526, "20636f6d6d697473": 9527, "65726d616e": 9528, "20666c6f7572": 9529, "20666c6f776e": 9530, "203637": 9531, "207072696465": 9532, "206b65656e": 9533, "706870": 9534, "20747261696e6564": 9535, "636f6d6573": 9536, "2070726f647563657273": 9537, "206b6e6f77696e67": 9538, "2077686572656173": 9539, "20756e6465727761746572": 9540, "20556e6976657273": 9541, "20656e746974": 9542, "20656e7472616e6365": 9543, "20536561736f6e": 9544, "207365747570": 9545, "204164616d": 9546, "20426c6f636b": 9547, "2073686f756c64657273": 9548, "7368697274": 9549, "203737": 9550, "206c6f63616c6c79": 9551, "20696e7374616e746c79": 9552, "20646574656374696f6e": 9553, "617468616e": 9554, "20646563656e74": 9555, "206465636179": 9556, "2053686f7274": 9557, "6379636c": 9558, "207375726765": 9559, "20736c6162": 9560, "61686f6c6963": 9561, "20416c62": 9562, "20746f70696373": 9563, "2065646974": 9564, "206578706f7274": 9565, "206c697374696e67": 9566, "20636f6d706c6574696e67": 9567, "206175746f666f637573": 9568, "20626f6f6b6564": 9569, "6265726564": 9570, "2066696c746572": 9571, "20706c616e6574": 9572,
[...]
